{
  "version": "1.0",
  "truncation": null,
  "padding": null,
  "added_tokens": [
    {
      "id": 0,
      "content": "<UNK>",
      "single_word": false,
      "lstrip": false,
      "rstrip": false,
      "normalized": false,
      "special": true
    },
    {
      "id": 1,
      "content": "<SEP>",
      "single_word": false,
      "lstrip": false,
      "rstrip": false,
      "normalized": false,
      "special": true
    },
    {
      "id": 2,
      "content": "<MASK>",
      "single_word": false,
      "lstrip": false,
      "rstrip": false,
      "normalized": false,
      "special": true
    },
    {
      "id": 3,
      "content": "<CLS>",
      "single_word": false,
      "lstrip": false,
      "rstrip": false,
      "normalized": false,
      "special": true
    }
  ],
  "normalizer": {
    "type": "NFKC"
  },
  "pre_tokenizer": {
    "type": "Metaspace",
    "replacement": "▁",
    "prepend_scheme": "always",
    "split": true
  },
  "post_processor": null,
  "decoder": {
    "type": "Metaspace",
    "replacement": "▁",
    "prepend_scheme": "always",
    "split": true
  },
  "model": {
    "type": "BPE",
    "dropout": null,
    "unk_token": "<unk>",
    "continuing_subword_prefix": null,
    "end_of_word_suffix": null,
    "fuse_unk": false,
    "byte_fallback": false,
    "ignore_merges": false,
    "vocab": {
      "<UNK>": 0,
      "<SEP>": 1,
      "<MASK>": 2,
      "<CLS>": 3,
      "0": 4,
      "1": 5,
      "2": 6,
      "3": 7,
      "4": 8,
      "5": 9,
      "6": 10,
      "7": 11,
      "8": 12,
      "9": 13,
      "a": 14,
      "b": 15,
      "c": 16,
      "d": 17,
      "e": 18,
      "f": 19,
      "g": 20,
      "h": 21,
      "i": 22,
      "j": 23,
      "k": 24,
      "l": 25,
      "m": 26,
      "n": 27,
      "o": 28,
      "p": 29,
      "q": 30,
      "r": 31,
      "s": 32,
      "t": 33,
      "u": 34,
      "v": 35,
      "w": 36,
      "x": 37,
      "y": 38,
      "z": 39,
      "▁": 40,
      "▁p": 41,
      "sh": 42,
      "▁pu": 43,
      "▁push": 44,
      "▁c": 45,
      "▁i": 46,
      "▁s": 47,
      "▁in": 48,
      "▁j": 49,
      "op": 50,
      "mo": 51,
      "mov": 52,
      "▁mov": 53,
      "▁x": 54,
      "▁pop": 55,
      "▁l": 56,
      "▁o": 57,
      "mp": 58,
      "ch": 59,
      "chg": 60,
      "▁xchg": 61,
      "▁inc": 62,
      "▁a": 63,
      "▁cmp": 64,
      "ll": 65,
      "▁f": 66,
      "▁d": 67,
      "re": 68,
      "all": 69,
      "▁call": 70,
      "ut": 71,
      "▁out": 72,
      "▁lo": 73,
      "ub": 74,
      "ec": 75,
      "or": 76,
      "st": 77,
      "nd": 78,
      "te": 79,
      "ret": 80,
      "bb": 81,
      "▁st": 82,
      "▁sub": 83,
      "▁sbb": 84,
      "▁xor": 85,
      "▁dec": 86,
      "▁and": 87,
      "▁decl": 88,
      "▁or": 89,
      "▁te": 90,
      "▁test": 91,
      "▁int": 92,
      "▁jn": 93,
      "▁cl": 94,
      "sl": 95,
      "sb": 96,
      "as": 97,
      "▁loop": 98,
      "ds": 99,
      "▁r": 100,
      "cas": 101,
      "▁scas": 102,
      "▁jb": 103,
      "▁le": 104,
      "▁jl": 105,
      "▁ja": 106,
      "▁lret": 107,
      "os": 108,
      "▁stos": 109,
      "▁ret": 110,
      "▁jg": 111,
      "▁lods": 112,
      "ah": 113,
      "ahf": 114,
      "▁fi": 115,
      "▁lea": 116,
      "▁sh": 117,
      "at": 118,
      "▁e": 119,
      "▁re": 120,
      "▁rep": 121,
      "mu": 122,
      "▁n": 123,
      "▁popa": 124,
      "mul": 125,
      "▁fs": 126,
      "▁rc": 127,
      "iv": 128,
      "16": 129,
      "▁int1": 130,
      "lat": 131,
      "▁xlat": 132,
      "tl": 133,
      "▁jmp": 134,
      "▁loope": 135,
      "▁jle": 136,
      "ne": 137,
      "▁clt": 138,
      "am": 139,
      "▁aam": 140,
      "▁int3": 141,
      "▁cltd": 142,
      "▁movsb": 143,
      "▁pushf": 144,
      "hl": 145,
      "▁pusha": 146,
      "▁outsb": 147,
      "▁jnp": 148,
      "▁hl": 149,
      "▁hlt": 150,
      "▁loopne": 151,
      "▁insl": 152,
      "▁cw": 153,
      "▁cwtl": 154,
      "▁jbe": 155,
      "▁jno": 156,
      "▁cli": 157,
      "xz": 158,
      "▁stc": 159,
      "▁jec": 160,
      "▁into": 161,
      "▁jecxz": 162,
      "▁jae": 163,
      "▁jne": 164,
      "▁nop": 165,
      "▁jo": 166,
      "▁jp": 167,
      "▁sahf": 168,
      "▁movsl": 169,
      "▁jns": 170,
      "▁cmpsl": 171,
      "mc": 172,
      "▁je": 173,
      "▁cmc": 174,
      "ve": 175,
      "▁cld": 176,
      "nte": 177,
      "nter": 178,
      "▁enter": 179,
      "▁outsl": 180,
      "▁popf": 181,
      "▁iret": 182,
      "▁cmpsb": 183,
      "▁std": 184,
      "▁clc": 185,
      "wa": 186,
      "▁jge": 187,
      "▁sti": 188,
      "▁lahf": 189,
      "pl": 190,
      "it": 191,
      "▁aas": 192,
      "▁js": 193,
      "▁fwa": 194,
      "▁fwait": 195,
      "▁insb": 196,
      "div": 197,
      "▁leave": 198,
      "dd": 199,
      "▁das": 200,
      "ck": 201,
      "rl": 202,
      "co": 203,
      "▁lock": 204,
      "▁imul": 205,
      "rpl": 206,
      "▁arpl": 207,
      "lb": 208,
      "nz": 209,
      "▁repnz": 210,
      "▁repz": 211,
      "▁add": 212,
      "▁g": 213,
      "▁gs": 214,
      "r16": 215,
      "▁ss": 216,
      "▁addr16": 217,
      "▁b": 218,
      "▁cs": 219,
      "▁es": 220,
      "▁ro": 221,
      "▁ror": 222,
      "ld": 223,
      "▁ds": 224,
      "▁sa": 225,
      "▁fist": 226,
      "▁fsub": 227,
      "rb": 228,
      "com": 229,
      "ou": 230,
      "▁bou": 231,
      "▁bound": 232,
      "ata": 233,
      "▁data": 234,
      "▁data16": 235,
      "▁les": 236,
      "▁lds": 237,
      "▁fdiv": 238,
      "▁fst": 239,
      "▁shl": 240,
      "comp": 241,
      "▁shlb": 242,
      "▁fld": 243,
      "▁shll": 244,
      "sub": 245,
      "▁fidiv": 246,
      "rs": 247,
      "▁fn": 248,
      "▁fisub": 249,
      "ps": 250,
      "mull": 251,
      "▁fc": 252,
      "▁fcom": 253,
      "▁fcmov": 254,
      "▁shr": 255,
      "▁rcr": 256,
      "▁rclb": 257,
      "add": 258,
      "▁fnst": 259,
      "▁div": 260,
      "▁rcrl": 261,
      "▁rolb": 262,
      "▁no": 263,
      "▁sarl": 264,
      "▁rorb": 265,
      "▁rol": 266,
      "▁idiv": 267,
      "▁roll": 268,
      "▁fistt": 269,
      "ad": 270,
      "▁sar": 271,
      "▁rorl": 272,
      "▁rcl": 273,
      "▁shrl": 274,
      "▁shrb": 275,
      "adds": 276,
      "▁fmul": 277,
      "eg": 278,
      "▁neg": 279,
      "▁rcrb": 280,
      "comps": 281,
      "▁rcll": 282,
      "▁sarb": 283,
      "▁fu": 284,
      "lds": 285,
      "nv": 286,
      "▁cmpb": 287,
      "▁fb": 288,
      "addl": 289,
      "env": 290,
      "pll": 291,
      "cw": 292,
      "▁not": 293,
      "▁fild": 294,
      "▁orb": 295,
      "▁ficom": 296,
      "▁fsubr": 297,
      "compl": 298,
      "▁sbbb": 299,
      "▁xorb": 300,
      "▁fucom": 301,
      "▁fiadds": 302,
      "▁subb": 303,
      "▁fldl": 304,
      "▁fidivrs": 305,
      "▁ficomps": 306,
      "▁fdivr": 307,
      "▁mul": 308,
      "▁testb": 309,
      "sw": 310,
      "▁andb": 311,
      "▁fstp": 312,
      "▁fsubrl": 313,
      "muls": 314,
      "▁bnd": 315,
      "▁fcmovn": 316,
      "▁fimuls": 317,
      "▁incl": 318,
      "▁fisubs": 319,
      "▁faddl": 320,
      "▁fists": 321,
      "jmp": 322,
      "▁ljmp": 323,
      "▁fcoml": 324,
      "call": 325,
      "▁fucomi": 326,
      "▁lcall": 327,
      "▁movb": 328,
      "▁fisubrs": 329,
      "▁fimull": 330,
      "▁orl": 331,
      "▁fildll": 332,
      "▁flds": 333,
      "▁fcompl": 334,
      "stp": 335,
      "▁fidivs": 336,
      "▁fstpt": 337,
      "▁fstpl": 338,
      "▁fbstp": 339,
      "▁fnstsw": 340,
      "▁fisttpll": 341,
      "▁fnstenv": 342,
      "▁fsubl": 343,
      "ave": 344,
      "save": 345,
      "▁subl": 346,
      "▁fbld": 347,
      "▁fnsave": 348,
      "▁fcomps": 349,
      "▁filds": 350,
      "▁notl": 351,
      "▁fmuls": 352,
      "▁mull": 353,
      "▁fistl": 354,
      "▁fdivrl": 355,
      "▁fstps": 356,
      "▁ficoms": 357,
      "▁andl": 358,
      "▁fldenv": 359,
      "cl": 360,
      "▁fistpll": 361,
      "▁fldt": 362,
      "▁fcomi": 363,
      "▁fnstcw": 364,
      "▁divl": 365,
      "▁fstl": 366,
      "▁fldcw": 367,
      "▁fidivl": 368,
      "▁fistps": 369,
      "be": 370,
      "▁xorl": 371,
      "▁fdivl": 372,
      "▁idivb": 373,
      "▁idivl": 374,
      "▁fisubl": 375,
      "▁fcoms": 376,
      "▁fsubrs": 377,
      "▁negl": 378,
      "▁notb": 379,
      "▁fadds": 380,
      "▁fsubrp": 381,
      "dcl": 382,
      "▁adcl": 383,
      "▁fisttpl": 384,
      "▁fisttps": 385,
      "▁ficoml": 386,
      "▁fmull": 387,
      "fre": 388,
      "▁imull": 389,
      "▁ffre": 390,
      "▁ffree": 391,
      "▁fsubs": 392,
      "▁negb": 393,
      "▁incb": 394,
      "▁fiaddl": 395,
      "▁addl": 396,
      "▁fistpl": 397,
      "▁fidivrl": 398,
      "▁fisubrl": 399,
      "▁fdivs": 400,
      "▁fsts": 401,
      "▁fdivrs": 402,
      "▁fildl": 403,
      "▁divb": 404,
      "▁fr": 405,
      "▁ficompl": 406,
      "▁fdivp": 407,
      "▁fmulp": 408,
      "▁cmov": 409,
      "▁cmpl": 410,
      "stor": 411,
      "▁imulb": 412,
      "▁frstor": 413,
      "▁mulb": 414,
      "▁fucomip": 415,
      "▁fdivrp": 416,
      "▁fsubp": 417,
      "et": 418,
      "▁sbbl": 419,
      "▁fcmovbe": 420,
      "▁ps": 421,
      "addp": 422,
      "▁faddp": 423,
      "▁fcmovnu": 424,
      "▁fcmovnb": 425,
      "▁fcmovu": 426,
      "▁set": 427,
      "▁bs": 428,
      "▁fcomp": 429,
      "▁v": 430,
      "▁xa": 431,
      "▁fcomip": 432,
      "▁fx": 433,
      "▁fucomp": 434,
      "▁fcmovne": 435,
      "np": 436,
      "wap": 437,
      "▁fcmove": 438,
      "▁bswap": 439,
      "bor": 440,
      "▁bt": 441,
      "▁ffreep": 442,
      "▁xabor": 443,
      "▁xabort": 444,
      "▁pushw": 445,
      "▁fcmovnbe": 446,
      "▁fxch": 447,
      "vt": 448,
      "▁cvt": 449,
      "in": 450,
      "le": 451,
      "pi": 452,
      "▁pm": 453,
      "▁psub": 454,
      "▁padd": 455,
      "▁fcmovb": 456,
      "npck": 457,
      "ms": 458,
      "ra": 459,
      "ss": 460,
      "ys": 461,
      "▁u": 462,
      "▁sys": 463,
      "cmp": 464,
      "qr": 465,
      "▁pcmp": 466,
      "qrt": 467,
      "▁fldl2": 468,
      "npckh": 469,
      "dq": 470,
      "▁popw": 471,
      "eq": 472,
      "▁retw": 473,
      "▁pcmpeq": 474,
      "wd": 475,
      "▁pa": 476,
      "▁punpckh": 477,
      "▁psra": 478,
      "▁psraw": 479,
      "ax": 480,
      "▁cmova": 481,
      "▁fldl2e": 482,
      "bl": 483,
      "▁rd": 484,
      "em": 485,
      "ex": 486,
      "nt": 487,
      "2ps": 488,
      "▁fsqrt": 489,
      "▁fcos": 490,
      "▁psrl": 491,
      "▁setb": 492,
      "▁pmul": 493,
      "▁movnt": 494,
      "chs": 495,
      "▁fchs": 496,
      "ps2": 497,
      "▁cvtpi": 498,
      "▁cvtpi2ps": 499
    },
    "merges": [
      [
        "▁",
        "p"
      ],
      [
        "s",
        "h"
      ],
      [
        "▁p",
        "u"
      ],
      [
        "▁pu",
        "sh"
      ],
      [
        "▁",
        "c"
      ],
      [
        "▁",
        "i"
      ],
      [
        "▁",
        "s"
      ],
      [
        "▁i",
        "n"
      ],
      [
        "▁",
        "j"
      ],
      [
        "o",
        "p"
      ],
      [
        "m",
        "o"
      ],
      [
        "mo",
        "v"
      ],
      [
        "▁",
        "mov"
      ],
      [
        "▁",
        "x"
      ],
      [
        "▁p",
        "op"
      ],
      [
        "▁",
        "l"
      ],
      [
        "▁",
        "o"
      ],
      [
        "m",
        "p"
      ],
      [
        "c",
        "h"
      ],
      [
        "ch",
        "g"
      ],
      [
        "▁x",
        "chg"
      ],
      [
        "▁in",
        "c"
      ],
      [
        "▁",
        "a"
      ],
      [
        "▁c",
        "mp"
      ],
      [
        "l",
        "l"
      ],
      [
        "▁",
        "f"
      ],
      [
        "▁",
        "d"
      ],
      [
        "r",
        "e"
      ],
      [
        "a",
        "ll"
      ],
      [
        "▁c",
        "all"
      ],
      [
        "u",
        "t"
      ],
      [
        "▁o",
        "ut"
      ],
      [
        "▁l",
        "o"
      ],
      [
        "u",
        "b"
      ],
      [
        "e",
        "c"
      ],
      [
        "o",
        "r"
      ],
      [
        "s",
        "t"
      ],
      [
        "n",
        "d"
      ],
      [
        "t",
        "e"
      ],
      [
        "re",
        "t"
      ],
      [
        "b",
        "b"
      ],
      [
        "▁s",
        "t"
      ],
      [
        "▁s",
        "ub"
      ],
      [
        "▁s",
        "bb"
      ],
      [
        "▁x",
        "or"
      ],
      [
        "▁d",
        "ec"
      ],
      [
        "▁a",
        "nd"
      ],
      [
        "▁dec",
        "l"
      ],
      [
        "▁o",
        "r"
      ],
      [
        "▁",
        "te"
      ],
      [
        "▁te",
        "st"
      ],
      [
        "▁in",
        "t"
      ],
      [
        "▁j",
        "n"
      ],
      [
        "▁c",
        "l"
      ],
      [
        "s",
        "l"
      ],
      [
        "s",
        "b"
      ],
      [
        "a",
        "s"
      ],
      [
        "▁lo",
        "op"
      ],
      [
        "d",
        "s"
      ],
      [
        "▁",
        "r"
      ],
      [
        "c",
        "as"
      ],
      [
        "▁s",
        "cas"
      ],
      [
        "▁j",
        "b"
      ],
      [
        "▁l",
        "e"
      ],
      [
        "▁j",
        "l"
      ],
      [
        "▁j",
        "a"
      ],
      [
        "▁l",
        "ret"
      ],
      [
        "o",
        "s"
      ],
      [
        "▁st",
        "os"
      ],
      [
        "▁",
        "ret"
      ],
      [
        "▁j",
        "g"
      ],
      [
        "▁lo",
        "ds"
      ],
      [
        "a",
        "h"
      ],
      [
        "ah",
        "f"
      ],
      [
        "▁f",
        "i"
      ],
      [
        "▁le",
        "a"
      ],
      [
        "▁",
        "sh"
      ],
      [
        "a",
        "t"
      ],
      [
        "▁",
        "e"
      ],
      [
        "▁",
        "re"
      ],
      [
        "▁re",
        "p"
      ],
      [
        "m",
        "u"
      ],
      [
        "▁",
        "n"
      ],
      [
        "▁pop",
        "a"
      ],
      [
        "mu",
        "l"
      ],
      [
        "▁f",
        "s"
      ],
      [
        "▁r",
        "c"
      ],
      [
        "i",
        "v"
      ],
      [
        "1",
        "6"
      ],
      [
        "▁int",
        "1"
      ],
      [
        "l",
        "at"
      ],
      [
        "▁x",
        "lat"
      ],
      [
        "t",
        "l"
      ],
      [
        "▁j",
        "mp"
      ],
      [
        "▁loop",
        "e"
      ],
      [
        "▁jl",
        "e"
      ],
      [
        "n",
        "e"
      ],
      [
        "▁cl",
        "t"
      ],
      [
        "a",
        "m"
      ],
      [
        "▁a",
        "am"
      ],
      [
        "▁int",
        "3"
      ],
      [
        "▁clt",
        "d"
      ],
      [
        "▁mov",
        "sb"
      ],
      [
        "▁push",
        "f"
      ],
      [
        "h",
        "l"
      ],
      [
        "▁push",
        "a"
      ],
      [
        "▁out",
        "sb"
      ],
      [
        "▁jn",
        "p"
      ],
      [
        "▁",
        "hl"
      ],
      [
        "▁hl",
        "t"
      ],
      [
        "▁loop",
        "ne"
      ],
      [
        "▁in",
        "sl"
      ],
      [
        "▁c",
        "w"
      ],
      [
        "▁cw",
        "tl"
      ],
      [
        "▁jb",
        "e"
      ],
      [
        "▁jn",
        "o"
      ],
      [
        "▁cl",
        "i"
      ],
      [
        "x",
        "z"
      ],
      [
        "▁st",
        "c"
      ],
      [
        "▁j",
        "ec"
      ],
      [
        "▁int",
        "o"
      ],
      [
        "▁jec",
        "xz"
      ],
      [
        "▁ja",
        "e"
      ],
      [
        "▁jn",
        "e"
      ],
      [
        "▁n",
        "op"
      ],
      [
        "▁j",
        "o"
      ],
      [
        "▁j",
        "p"
      ],
      [
        "▁s",
        "ahf"
      ],
      [
        "▁mov",
        "sl"
      ],
      [
        "▁jn",
        "s"
      ],
      [
        "▁cmp",
        "sl"
      ],
      [
        "m",
        "c"
      ],
      [
        "▁j",
        "e"
      ],
      [
        "▁c",
        "mc"
      ],
      [
        "v",
        "e"
      ],
      [
        "▁cl",
        "d"
      ],
      [
        "n",
        "te"
      ],
      [
        "nte",
        "r"
      ],
      [
        "▁e",
        "nter"
      ],
      [
        "▁out",
        "sl"
      ],
      [
        "▁pop",
        "f"
      ],
      [
        "▁i",
        "ret"
      ],
      [
        "▁cmp",
        "sb"
      ],
      [
        "▁st",
        "d"
      ],
      [
        "▁cl",
        "c"
      ],
      [
        "w",
        "a"
      ],
      [
        "▁jg",
        "e"
      ],
      [
        "▁st",
        "i"
      ],
      [
        "▁l",
        "ahf"
      ],
      [
        "p",
        "l"
      ],
      [
        "i",
        "t"
      ],
      [
        "▁a",
        "as"
      ],
      [
        "▁j",
        "s"
      ],
      [
        "▁f",
        "wa"
      ],
      [
        "▁fwa",
        "it"
      ],
      [
        "▁in",
        "sb"
      ],
      [
        "d",
        "iv"
      ],
      [
        "▁lea",
        "ve"
      ],
      [
        "d",
        "d"
      ],
      [
        "▁d",
        "as"
      ],
      [
        "c",
        "k"
      ],
      [
        "r",
        "l"
      ],
      [
        "c",
        "o"
      ],
      [
        "▁lo",
        "ck"
      ],
      [
        "▁i",
        "mul"
      ],
      [
        "r",
        "pl"
      ],
      [
        "▁a",
        "rpl"
      ],
      [
        "l",
        "b"
      ],
      [
        "n",
        "z"
      ],
      [
        "▁rep",
        "nz"
      ],
      [
        "▁rep",
        "z"
      ],
      [
        "▁a",
        "dd"
      ],
      [
        "▁",
        "g"
      ],
      [
        "▁g",
        "s"
      ],
      [
        "r",
        "16"
      ],
      [
        "▁s",
        "s"
      ],
      [
        "▁add",
        "r16"
      ],
      [
        "▁",
        "b"
      ],
      [
        "▁c",
        "s"
      ],
      [
        "▁e",
        "s"
      ],
      [
        "▁r",
        "o"
      ],
      [
        "▁r",
        "or"
      ],
      [
        "l",
        "d"
      ],
      [
        "▁d",
        "s"
      ],
      [
        "▁s",
        "a"
      ],
      [
        "▁fi",
        "st"
      ],
      [
        "▁fs",
        "ub"
      ],
      [
        "r",
        "b"
      ],
      [
        "co",
        "m"
      ],
      [
        "o",
        "u"
      ],
      [
        "▁b",
        "ou"
      ],
      [
        "▁bou",
        "nd"
      ],
      [
        "at",
        "a"
      ],
      [
        "▁d",
        "ata"
      ],
      [
        "▁data",
        "16"
      ],
      [
        "▁le",
        "s"
      ],
      [
        "▁l",
        "ds"
      ],
      [
        "▁f",
        "div"
      ],
      [
        "▁f",
        "st"
      ],
      [
        "▁sh",
        "l"
      ],
      [
        "co",
        "mp"
      ],
      [
        "▁sh",
        "lb"
      ],
      [
        "▁f",
        "ld"
      ],
      [
        "▁sh",
        "ll"
      ],
      [
        "s",
        "ub"
      ],
      [
        "▁fi",
        "div"
      ],
      [
        "r",
        "s"
      ],
      [
        "▁f",
        "n"
      ],
      [
        "▁fi",
        "sub"
      ],
      [
        "p",
        "s"
      ],
      [
        "mu",
        "ll"
      ],
      [
        "▁f",
        "c"
      ],
      [
        "▁f",
        "com"
      ],
      [
        "▁fc",
        "mov"
      ],
      [
        "▁sh",
        "r"
      ],
      [
        "▁rc",
        "r"
      ],
      [
        "▁rc",
        "lb"
      ],
      [
        "a",
        "dd"
      ],
      [
        "▁fn",
        "st"
      ],
      [
        "▁d",
        "iv"
      ],
      [
        "▁rc",
        "rl"
      ],
      [
        "▁ro",
        "lb"
      ],
      [
        "▁n",
        "o"
      ],
      [
        "▁sa",
        "rl"
      ],
      [
        "▁ror",
        "b"
      ],
      [
        "▁ro",
        "l"
      ],
      [
        "▁i",
        "div"
      ],
      [
        "▁ro",
        "ll"
      ],
      [
        "▁fist",
        "t"
      ],
      [
        "a",
        "d"
      ],
      [
        "▁sa",
        "r"
      ],
      [
        "▁ror",
        "l"
      ],
      [
        "▁rc",
        "l"
      ],
      [
        "▁sh",
        "rl"
      ],
      [
        "▁sh",
        "rb"
      ],
      [
        "ad",
        "ds"
      ],
      [
        "▁f",
        "mul"
      ],
      [
        "e",
        "g"
      ],
      [
        "▁n",
        "eg"
      ],
      [
        "▁rc",
        "rb"
      ],
      [
        "comp",
        "s"
      ],
      [
        "▁rc",
        "ll"
      ],
      [
        "▁sa",
        "rb"
      ],
      [
        "▁f",
        "u"
      ],
      [
        "l",
        "ds"
      ],
      [
        "n",
        "v"
      ],
      [
        "▁cmp",
        "b"
      ],
      [
        "▁f",
        "b"
      ],
      [
        "add",
        "l"
      ],
      [
        "e",
        "nv"
      ],
      [
        "p",
        "ll"
      ],
      [
        "c",
        "w"
      ],
      [
        "▁no",
        "t"
      ],
      [
        "▁fi",
        "ld"
      ],
      [
        "▁or",
        "b"
      ],
      [
        "▁fi",
        "com"
      ],
      [
        "▁fsub",
        "r"
      ],
      [
        "comp",
        "l"
      ],
      [
        "▁sbb",
        "b"
      ],
      [
        "▁xor",
        "b"
      ],
      [
        "▁fu",
        "com"
      ],
      [
        "▁fi",
        "adds"
      ],
      [
        "▁sub",
        "b"
      ],
      [
        "▁fld",
        "l"
      ],
      [
        "▁fidiv",
        "rs"
      ],
      [
        "▁fi",
        "comps"
      ],
      [
        "▁fdiv",
        "r"
      ],
      [
        "▁",
        "mul"
      ],
      [
        "▁test",
        "b"
      ],
      [
        "s",
        "w"
      ],
      [
        "▁and",
        "b"
      ],
      [
        "▁fst",
        "p"
      ],
      [
        "▁fsub",
        "rl"
      ],
      [
        "mul",
        "s"
      ],
      [
        "▁b",
        "nd"
      ],
      [
        "▁fcmov",
        "n"
      ],
      [
        "▁fi",
        "muls"
      ],
      [
        "▁inc",
        "l"
      ],
      [
        "▁fisub",
        "s"
      ],
      [
        "▁f",
        "addl"
      ],
      [
        "▁fist",
        "s"
      ],
      [
        "j",
        "mp"
      ],
      [
        "▁l",
        "jmp"
      ],
      [
        "▁fcom",
        "l"
      ],
      [
        "c",
        "all"
      ],
      [
        "▁fucom",
        "i"
      ],
      [
        "▁l",
        "call"
      ],
      [
        "▁mov",
        "b"
      ],
      [
        "▁fisub",
        "rs"
      ],
      [
        "▁fi",
        "mull"
      ],
      [
        "▁or",
        "l"
      ],
      [
        "▁fild",
        "ll"
      ],
      [
        "▁f",
        "lds"
      ],
      [
        "▁f",
        "compl"
      ],
      [
        "st",
        "p"
      ],
      [
        "▁fidiv",
        "s"
      ],
      [
        "▁fstp",
        "t"
      ],
      [
        "▁fst",
        "pl"
      ],
      [
        "▁fb",
        "stp"
      ],
      [
        "▁fnst",
        "sw"
      ],
      [
        "▁fistt",
        "pll"
      ],
      [
        "▁fnst",
        "env"
      ],
      [
        "▁fsub",
        "l"
      ],
      [
        "a",
        "ve"
      ],
      [
        "s",
        "ave"
      ],
      [
        "▁sub",
        "l"
      ],
      [
        "▁fb",
        "ld"
      ],
      [
        "▁fn",
        "save"
      ],
      [
        "▁f",
        "comps"
      ],
      [
        "▁fi",
        "lds"
      ],
      [
        "▁no",
        "tl"
      ],
      [
        "▁fmul",
        "s"
      ],
      [
        "▁",
        "mull"
      ],
      [
        "▁fist",
        "l"
      ],
      [
        "▁fdiv",
        "rl"
      ],
      [
        "▁fst",
        "ps"
      ],
      [
        "▁ficom",
        "s"
      ],
      [
        "▁and",
        "l"
      ],
      [
        "▁fld",
        "env"
      ],
      [
        "c",
        "l"
      ],
      [
        "▁fist",
        "pll"
      ],
      [
        "▁fld",
        "t"
      ],
      [
        "▁fcom",
        "i"
      ],
      [
        "▁fnst",
        "cw"
      ],
      [
        "▁div",
        "l"
      ],
      [
        "▁fst",
        "l"
      ],
      [
        "▁fld",
        "cw"
      ],
      [
        "▁fidiv",
        "l"
      ],
      [
        "▁fist",
        "ps"
      ],
      [
        "b",
        "e"
      ],
      [
        "▁xor",
        "l"
      ],
      [
        "▁fdiv",
        "l"
      ],
      [
        "▁idiv",
        "b"
      ],
      [
        "▁idiv",
        "l"
      ],
      [
        "▁fisub",
        "l"
      ],
      [
        "▁fcom",
        "s"
      ],
      [
        "▁fsub",
        "rs"
      ],
      [
        "▁neg",
        "l"
      ],
      [
        "▁not",
        "b"
      ],
      [
        "▁f",
        "adds"
      ],
      [
        "▁fsubr",
        "p"
      ],
      [
        "d",
        "cl"
      ],
      [
        "▁a",
        "dcl"
      ],
      [
        "▁fistt",
        "pl"
      ],
      [
        "▁fistt",
        "ps"
      ],
      [
        "▁ficom",
        "l"
      ],
      [
        "▁f",
        "mull"
      ],
      [
        "f",
        "re"
      ],
      [
        "▁i",
        "mull"
      ],
      [
        "▁f",
        "fre"
      ],
      [
        "▁ffre",
        "e"
      ],
      [
        "▁fsub",
        "s"
      ],
      [
        "▁neg",
        "b"
      ],
      [
        "▁inc",
        "b"
      ],
      [
        "▁fi",
        "addl"
      ],
      [
        "▁add",
        "l"
      ],
      [
        "▁fist",
        "pl"
      ],
      [
        "▁fidiv",
        "rl"
      ],
      [
        "▁fisub",
        "rl"
      ],
      [
        "▁fdiv",
        "s"
      ],
      [
        "▁fst",
        "s"
      ],
      [
        "▁fdiv",
        "rs"
      ],
      [
        "▁fild",
        "l"
      ],
      [
        "▁div",
        "b"
      ],
      [
        "▁f",
        "r"
      ],
      [
        "▁fi",
        "compl"
      ],
      [
        "▁fdiv",
        "p"
      ],
      [
        "▁fmul",
        "p"
      ],
      [
        "▁c",
        "mov"
      ],
      [
        "▁cmp",
        "l"
      ],
      [
        "st",
        "or"
      ],
      [
        "▁imul",
        "b"
      ],
      [
        "▁fr",
        "stor"
      ],
      [
        "▁mul",
        "b"
      ],
      [
        "▁fucomi",
        "p"
      ],
      [
        "▁fdivr",
        "p"
      ],
      [
        "▁fsub",
        "p"
      ],
      [
        "e",
        "t"
      ],
      [
        "▁sbb",
        "l"
      ],
      [
        "▁fcmov",
        "be"
      ],
      [
        "▁p",
        "s"
      ],
      [
        "add",
        "p"
      ],
      [
        "▁f",
        "addp"
      ],
      [
        "▁fcmovn",
        "u"
      ],
      [
        "▁fcmovn",
        "b"
      ],
      [
        "▁fcmov",
        "u"
      ],
      [
        "▁s",
        "et"
      ],
      [
        "▁b",
        "s"
      ],
      [
        "▁f",
        "comp"
      ],
      [
        "▁",
        "v"
      ],
      [
        "▁x",
        "a"
      ],
      [
        "▁fcomi",
        "p"
      ],
      [
        "▁f",
        "x"
      ],
      [
        "▁fu",
        "comp"
      ],
      [
        "▁fcmov",
        "ne"
      ],
      [
        "n",
        "p"
      ],
      [
        "wa",
        "p"
      ],
      [
        "▁fcmov",
        "e"
      ],
      [
        "▁bs",
        "wap"
      ],
      [
        "b",
        "or"
      ],
      [
        "▁b",
        "t"
      ],
      [
        "▁ffree",
        "p"
      ],
      [
        "▁xa",
        "bor"
      ],
      [
        "▁xabor",
        "t"
      ],
      [
        "▁push",
        "w"
      ],
      [
        "▁fcmovn",
        "be"
      ],
      [
        "▁fx",
        "ch"
      ],
      [
        "v",
        "t"
      ],
      [
        "▁c",
        "vt"
      ],
      [
        "i",
        "n"
      ],
      [
        "l",
        "e"
      ],
      [
        "p",
        "i"
      ],
      [
        "▁p",
        "m"
      ],
      [
        "▁p",
        "sub"
      ],
      [
        "▁p",
        "add"
      ],
      [
        "▁fcmov",
        "b"
      ],
      [
        "np",
        "ck"
      ],
      [
        "m",
        "s"
      ],
      [
        "r",
        "a"
      ],
      [
        "s",
        "s"
      ],
      [
        "y",
        "s"
      ],
      [
        "▁",
        "u"
      ],
      [
        "▁s",
        "ys"
      ],
      [
        "c",
        "mp"
      ],
      [
        "q",
        "r"
      ],
      [
        "▁p",
        "cmp"
      ],
      [
        "qr",
        "t"
      ],
      [
        "▁fldl",
        "2"
      ],
      [
        "npck",
        "h"
      ],
      [
        "d",
        "q"
      ],
      [
        "▁pop",
        "w"
      ],
      [
        "e",
        "q"
      ],
      [
        "▁ret",
        "w"
      ],
      [
        "▁pcmp",
        "eq"
      ],
      [
        "w",
        "d"
      ],
      [
        "▁p",
        "a"
      ],
      [
        "▁pu",
        "npckh"
      ],
      [
        "▁ps",
        "ra"
      ],
      [
        "▁psra",
        "w"
      ],
      [
        "a",
        "x"
      ],
      [
        "▁cmov",
        "a"
      ],
      [
        "▁fldl2",
        "e"
      ],
      [
        "b",
        "l"
      ],
      [
        "▁r",
        "d"
      ],
      [
        "e",
        "m"
      ],
      [
        "e",
        "x"
      ],
      [
        "n",
        "t"
      ],
      [
        "2",
        "ps"
      ],
      [
        "▁fs",
        "qrt"
      ],
      [
        "▁fc",
        "os"
      ],
      [
        "▁ps",
        "rl"
      ],
      [
        "▁set",
        "b"
      ],
      [
        "▁p",
        "mul"
      ],
      [
        "▁mov",
        "nt"
      ],
      [
        "ch",
        "s"
      ],
      [
        "▁f",
        "chs"
      ],
      [
        "ps",
        "2"
      ],
      [
        "▁cvt",
        "pi"
      ],
      [
        "▁cvtpi",
        "2ps"
      ]
    ]
  }
}