{
  "version": "1.0",
  "truncation": null,
  "padding": null,
  "added_tokens": [
    {
      "id": 0,
      "content": "<UNK>",
      "single_word": true,
      "lstrip": false,
      "rstrip": false,
      "normalized": false,
      "special": true
    },
    {
      "id": 1,
      "content": "<SEP>",
      "single_word": true,
      "lstrip": false,
      "rstrip": false,
      "normalized": false,
      "special": true
    },
    {
      "id": 2,
      "content": "<MASK>",
      "single_word": true,
      "lstrip": false,
      "rstrip": false,
      "normalized": false,
      "special": true
    },
    {
      "id": 3,
      "content": "<CLS>",
      "single_word": true,
      "lstrip": false,
      "rstrip": false,
      "normalized": false,
      "special": true
    },
    {
      "id": 4,
      "content": "<HEX>",
      "single_word": true,
      "lstrip": false,
      "rstrip": false,
      "normalized": false,
      "special": true
    },
    {
      "id": 5,
      "content": "<OFFSET>",
      "single_word": true,
      "lstrip": false,
      "rstrip": false,
      "normalized": false,
      "special": true
    }
  ],
  "normalizer": null,
  "pre_tokenizer": {
    "type": "Sequence",
    "pretokenizers": [
      {
        "type": "Split",
        "pattern": {
          "String": "<[^>]+>|\\[[^\\]]+\\]|\\w+"
        },
        "behavior": "Isolated",
        "invert": false
      },
      {
        "type": "Whitespace"
      }
    ]
  },
  "post_processor": null,
  "decoder": null,
  "model": {
    "type": "WordPiece",
    "unk_token": "<UNK>",
    "continuing_subword_prefix": "##",
    "max_input_chars_per_word": 100,
    "vocab": {
      "<UNK>": 0,
      "<SEP>": 1,
      "<MASK>": 2,
      "<CLS>": 3,
      "<HEX>": 4,
      "<OFFSET>": 5,
      "(": 6,
      ")": 7,
      "*": 8,
      "+": 9,
      "-": 10,
      "0": 11,
      "1": 12,
      "2": 13,
      "3": 14,
      "4": 15,
      "5": 16,
      "6": 17,
      "7": 18,
      "8": 19,
      "9": 20,
      ":": 21,
      "<": 22,
      ">": 23,
      "E": 24,
      "F": 25,
      "H": 26,
      "O": 27,
      "P": 28,
      "S": 29,
      "T": 30,
      "X": 31,
      "[": 32,
      "]": 33,
      "_": 34,
      "a": 35,
      "b": 36,
      "c": 37,
      "d": 38,
      "e": 39,
      "f": 40,
      "g": 41,
      "h": 42,
      "i": 43,
      "j": 44,
      "k": 45,
      "l": 46,
      "m": 47,
      "n": 48,
      "o": 49,
      "p": 50,
      "q": 51,
      "r": 52,
      "s": 53,
      "t": 54,
      "u": 55,
      "v": 56,
      "w": 57,
      "x": 58,
      "y": 59,
      "z": 60,
      "{": 61,
      "}": 62,
      "##1": 63,
      "##2": 64,
      "##d": 65,
      "##e": 66,
      "##s": 67,
      "##i": 68,
      "##m": 69,
      "##c": 70,
      "##p": 71,
      "##b": 72,
      "##r": 73,
      "##o": 74,
      "##a": 75,
      "##t": 76,
      "##5": 77,
      "##q": 78,
      "##u": 79,
      "##n": 80,
      "##k": 81,
      "##h": 82,
      "##4": 83,
      "##j": 84,
      "##l": 85,
      "##w": 86,
      "##7": 87,
      "##v": 88,
      "##f": 89,
      "##8": 90,
      "##x": 91,
      "##g": 92,
      "##3": 93,
      "##0": 94,
      "##9": 95,
      "##z": 96,
      "##6": 97,
      "##H": 98,
      "##E": 99,
      "##X": 100,
      "##>": 101,
      "##O": 102,
      "##F": 103,
      "##S": 104,
      "##T": 105,
      "##y": 106,
      "##_": 107,
      "##[": 108,
      "##P": 109,
      "##SE": 110,
      "<SE": 111,
      "##P>": 112,
      "<H": 113,
      "##EX": 114,
      "<HEX": 115,
      "##tr": 116,
      "ptr": 117,
      "##ov": 118,
      "mov": 119,
      "##or": 120,
      "##ax": 121,
      "##ord": 122,
      "##word": 123,
      "eax": 124,
      "dword": 125,
      "##cx": 126,
      "eb": 127,
      "<O": 128,
      "##FF": 129,
      "##T>": 130,
      "##SET>": 131,
      "<OFF": 132,
      "in": 133,
      "int": 134,
      "int3": 135,
      "pu": 136,
      "##sh": 137,
      "push": 138,
      "ebp": 139,
      "ed": 140,
      "es": 141,
      "qword": 142,
      "rax": 143,
      "ecx": 144,
      "##al": 145,
      "##all": 146,
      "call": 147,
      "rs": 148,
      "##mp": 149,
      "##dd": 150,
      "rcx": 151,
      "add": 152,
      "rb": 153,
      "rsp": 154,
      "rd": 155,
      "esi": 156,
      "##te": 157,
      "##yte": 158,
      "byte": 159,
      "##op": 160,
      "le": 161,
      "lea": 162,
      "edx": 163,
      "##mm": 164,
      "r1": 165,
      "ri": 166,
      "rip": 167,
      "edi": 168,
      "al": 169,
      "pop": 170,
      "ebx": 171,
      "rbx": 172,
      "xmm": 173,
      "cmp": 174,
      "jmp": 175,
      "esp": 176,
      "rdx": 177,
      "je": 178,
      "##st": 179,
      "te": 180,
      "test": 181,
      "r8": 182,
      "xor": 183,
      "rdi": 184,
      "rbp": 185,
      "jn": 186,
      "rsi": 187,
      "jne": 188,
      "##et": 189,
      "ret": 190,
      "##ub": 191,
      "sub": 192,
      "nop": 193,
      "r9": 194,
      "word": 195,
      "r14": 196,
      "xmm0": 197,
      "r8d": 198,
      "##nd": 199,
      "and": 200,
      "##ps": 201,
      "ymm": 202,
      "xmmword": 203,
      "r15": 204,
      "##zx": 205,
      "movzx": 206,
      "r12": 207,
      "inc": 208,
      "sh": 209,
      "##dq": 210,
      "r9d": 211,
      "r13": 212,
      "xmm1": 213,
      "or": 214,
      "jb": 215,
      ":[": 216,
      "r10": 217,
      "movs": 218,
      "r11": 219,
      "ja": 220,
      "ax": 221,
      "##ups": 222,
      "##ec": 223,
      "movups": 224,
      "dec": 225,
      "cl": 226,
      "##ul": 227,
      "##mov": 228,
      "dl": 229,
      "shl": 230,
      "js": 231,
      "shr": 232,
      "movsx": 233,
      "##sd": 234,
      "##mul": 235,
      "dx": 236,
      "mova": 237,
      "movdq": 238,
      "##ck": 239,
      "imul": 240,
      "jl": 241,
      "bl": 242,
      "jae": 243,
      "xmm2": 244,
      "movsxd": 245,
      "jbe": 246,
      "r14d": 247,
      "##add": 248,
      "movaps": 249,
      "cmov": 250,
      "cdq": 251,
      "xmm6": 252,
      "r10d": 253,
      "ah": 254,
      "lo": 255,
      "movdqa": 256,
      "##iv": 257,
      "##dc": 258,
      "vp": 259,
      "xmm3": 260,
      "jg": 261,
      "movsd": 262,
      "cs": 263,
      "adc": 264,
      "lock": 265,
      "vmov": 266,
      "r15d": 267,
      "r12d": 268,
      "ymm1": 269,
      "cx": 270,
      "ymmword": 271,
      "xmm4": 272,
      "jle": 273,
      "r11d": 274,
      "dh": 275,
      "##sb": 276,
      "ou": 277,
      "out": 278,
      "##div": 279,
      "idiv": 280,
      "jns": 281,
      "xmm7": 282,
      "r13d": 283,
      "ch": 284,
      "xmm5": 285,
      "sb": 286,
      "sbb": 287,
      "xorps": 288,
      "vmovdq": 289,
      "st": 290,
      "##ne": 291,
      "##il": 292,
      "##np": 293,
      "##npck": 294,
      "fs": 295,
      "sa": 296,
      "ro": 297,
      "rol": 298,
      "sar": 299,
      "vmovdqu": 300,
      "movdqu": 301,
      "ymm0": 302,
      "##xor": 303,
      "jge": 304,
      "set": 305,
      "ymm5": 306,
      "ymm4": 307,
      "mul": 308,
      "gs": 309,
      "##pl": 310,
      "sto": 311,
      "##ve": 312,
      "leave": 313,
      "##bs": 314,
      "movabs": 315,
      "ymm7": 316,
      "ymm3": 317,
      "##addd": 318,
      "ymm6": 319,
      "##pd": 320,
      "ymm2": 321,
      "outsd": 322,
      "##eg": 323,
      "neg": 324,
      "movq": 325,
      "punpck": 326,
      "##uf": 327,
      "##ld": 328,
      "##ch": 329,
      "outsb": 330,
      "xmm8": 331,
      "popal": 332,
      "ps": 333,
      "setne": 334,
      "bx": 335,
      "dil": 336,
      "se": 337,
      "sete": 338,
      "##chg": 339,
      "##ep": 340,
      "rep": 341,
      "##shuf": 342,
      "rc": 343,
      "xmm9": 344,
      "r8b": 345,
      "rcl": 346,
      "ar": 347,
      "arpl": 348,
      "xadd": 349,
      "cmove": 350,
      "si": 351,
      "div": 352,
      "stosd": 353,
      "##vt": 354,
      "##ss": 355,
      "ror": 356,
      "insb": 357,
      "bh": 358,
      "pxor": 359,
      "##wd": 360,
      "punpckl": 361,
      "cvt": 362,
      "cmovne": 363,
      "sil": 364,
      "##sw": 365,
      "vpaddd": 366,
      "bt": 367,
      "##stp": 368,
      "xmm10": 369,
      "vpxor": 370,
      "di": 371,
      "fstp": 372,
      "jo": 373,
      "mulsd": 374,
      "no": 375,
      "not": 376,
      "xchg": 377,
      "cmova": 378,
      "vps": 379,
      "psr": 380,
      "##om": 381,
      "padd": 382,
      "paddd": 383,
      "##unpck": 384,
      "bpl": 385,
      "movd": 386,
      "r9b": 387,
      "##omi": 388,
      "movss": 389,
      "##bw": 390,
      "cmovb": 391,
      "addsd": 392,
      "vpunpck": 393,
      "xmm11": 394,
      "bp": 395,
      "vmova": 396,
      "vmovaps": 397,
      "##er": 398,
      "##28": 399,
      "zmm": 400,
      "##si": 401,
      "##128": 402,
      "xmm12": 403,
      "insd": 404,
      "##qdq": 405,
      "##madd": 406,
      "pshuf": 407,
      "##xchg": 408,
      "cmpxchg": 409,
      "shld": 410,
      "##omisd": 411,
      "stosb": 412,
      "vmovdqa": 413,
      "punpckh": 414,
      "vpshuf": 415,
      "##ou": 416,
      "fld": 417,
      "vpsr": 418,
      "##en": 419,
      "r8w": 420,
      "xmm13": 421,
      "##lpd": 422,
      "subsd": 423,
      "r14b": 424,
      "r15b": 425,
      "movsb": 426,
      "##enc": 427,
      "r12b": 428,
      "cmovg": 429,
      "mm": 430,
      "r13b": 431,
      "movapd": 432,
      "bou": 433,
      "bound": 434,
      "pa": 435,
      "vper": 436,
      "vperm": 437,
      "##i128": 438,
      "##maddwd": 439,
      "cdqe": 440,
      "paddw": 441,
      "vpsrld": 442,
      "r10b": 443,
      "cvtsi": 444,
      "cvtsi2": 445,
      "##ldq": 446,
      "movlpd": 447,
      "vadd": 448,
      "cmovae": 449,
      "##ast": 450,
      "##br": 451,
      "vperm2": 452,
      "comisd": 453,
      "xmm15": 454,
      "xmm14": 455,
      "##lw": 456,
      "vpunpckh": 457,
      "##lld": 458,
      "ud": 459,
      "##es": 460,
      "ud2": 461,
      "punpcklbw": 462,
      "##esenc": 463,
      "##ns": 464,
      "psub": 465,
      "psrld": 466,
      "ymm11": 467,
      "vshuf": 468,
      "vshufps": 469,
      "cmovl": 470,
      "punpcklwd": 471,
      "##sub": 472,
      "lod": 473,
      "pshufd": 474,
      "punpcklqdq": 475,
      "r9w": 476,
      "##oa": 477,
      "##dcast": 478,
      "##broa": 479,
      "##broadcast": 480,
      "cp": 481,
      "##id": 482,
      "##uid": 483,
      "ymm9": 484,
      "cpuid": 485,
      "divsd": 486,
      "stosw": 487,
      "vaddps": 488,
      "##subps": 489,
      "vmul": 490,
      "vpshufb": 491,
      "uc": 492,
      "ymm13": 493,
      "##sd2": 494,
      "vperm2i128": 495,
      "ymm15": 496,
      "paddq": 497,
      "ymm8": 498,
      "ds": 499,
      "pmaddwd": 500,
      "pmul": 501,
      "sp": 502,
      "vmulps": 503,
      "ymm12": 504,
      "cvtt": 505,
      "da": 506,
      "vpslld": 507,
      "pushal": 508,
      "##dq2": 509,
      "va": 510,
      "##ad": 511,
      "cvtsi2sd": 512,
      "##cmp": 513,
      "vpunpckl": 514,
      "r11b": 515,
      "loop": 516,
      "vpor": 517,
      "cvtdq2": 518,
      "jp": 519,
      "punpckhwd": 520,
      "##it": 521,
      "ymm14": 522,
      "zmm2": 523,
      "clc": 524,
      "vpshufd": 525,
      "r15w": 526,
      "wa": 527,
      "psubw": 528,
      "wait": 529,
      "pcmp": 530,
      "r14w": 531,
      "##sd2si": 532,
      "##f128": 533,
      "cvttsd2si": 534,
      "vsubps": 535,
      "setg": 536,
      "mulss": 537,
      "pack": 538,
      "##esd": 539,
      "##ins": 540,
      "ss": 541,
      "ymm10": 542,
      "shuf": 543,
      "btr": 544,
      "punpckldq": 545,
      "cmovs": 546,
      "vbroadcast": 547,
      "cmovge": 548,
      "r13w": 549,
      "##esdec": 550,
      "ucomisd": 551,
      "shufps": 552,
      "bsw": 553,
      "##ap": 554,
      "bswap": 555,
      "r12w": 556,
      "mulps": 557,
      "lodsd": 558,
      "##omiss": 559,
      "shrd": 560,
      "setb": 561,
      "##ig": 562,
      "bts": 563,
      "##ign": 564,
      "##align": 565,
      "##eq": 566,
      "##hps": 567,
      "cmovbe": 568,
      "##alignr": 569,
      "psl": 570,
      "vaesenc": 571,
      "palignr": 572,
      "punpckhbw": 573,
      "##sdw": 574,
      "r10w": 575,
      "cvtdq2pd": 576,
      "pcmpeq": 577,
      "aesenc": 578,
      "seta": 579,
      "psrldq": 580,
      "##ssdw": 581,
      "unpck": 582,
      "vxor": 583,
      "por": 584,
      "vpadd": 585,
      "vxorps": 586,
      "##aw": 587,
      "das": 588,
      "retf": 589,
      "andps": 590,
      "##udq": 591,
      "pshufb": 592,
      "pmuludq": 593,
      "pand": 594,
      "fn": 595,
      "##hf": 596,
      "##fd": 597,
      "loopne": 598,
      "cvtsi2ss": 599,
      "r11w": 600,
      "addss": 601,
      "vmovups": 602,
      "jno": 603,
      "vpmaddwd": 604,
      "addps": 605,
      "##ps2": 606,
      "zmm1": 607,
      "##lps": 608,
      "##fenc": 609,
      "##fence": 610,
      "xword": 611,
      "mm0": 612,
      "aesdec": 613,
      "cld": 614,
      "daa": 615,
      "lfence": 616,
      "##ex": 617,
      "##insr": 618,
      "psrad": 619,
      "pinsr": 620,
      "aa": 621,
      "cmovle": 622,
      "fx": 623,
      "vf": 624,
      "##tf128": 625,
      "vpunpckhqdq": 626,
      "vpunpcklqdq": 627,
      "xorpd": 628,
      "sahf": 629,
      "packssdw": 630,
      "cvtps2": 631,
      "##usw": 632,
      "setl": 633,
      "##upd": 634,
      "vpbroadcast": 635,
      "movupd": 636,
      "fnst": 637,
      "vpbroadcastd": 638,
      "##13": 639,
      "##ss2": 640,
      "vpunpckldq": 641,
      "vpunpckhdq": 642,
      "pinsrw": 643,
      "sc": 644,
      "sca": 645,
      "cmovns": 646,
      "pushfd": 647,
      "divss": 648,
      "##extr": 649,
      "vfmadd": 650,
      "##lt": 651,
      "pshuflw": 652,
      "##in": 653,
      "##adbw": 654,
      "fc": 655,
      "paddsw": 656,
      "psadbw": 657,
      "comiss": 658,
      "mulpd": 659,
      "rcr": 660,
      "##ac": 661,
      "psraw": 662,
      "vins": 663,
      "vinser": 664,
      "ucomiss": 665,
      "##ubsw": 666,
      "##maddubsw": 667,
      "pmov": 668,
      "vextr": 669,
      "lodsw": 670,
      "vextrac": 671,
      "##lq": 672,
      "pslld": 673,
      "psrlw": 674,
      "cvtdq2ps": 675,
      "vpaddq": 676,
      "bs": 677,
      "pslldq": 678,
      "vbroadcasti128": 679,
      "vunpck": 680,
      "zmm0": 681,
      "vperm2f128": 682,
      "fxch": 683,
      "vextractf128": 684,
      "vbroadcastss": 685,
      "subss": 686,
      "vaddsubps": 687,
      "fnstsw": 688,
      "psubd": 689,
      "fi": 690,
      "##uswb": 691,
      "pmaddubsw": 692,
      "##sk": 693,
      "vaesdec": 694,
      "##msk": 695,
      "vpunpcklwd": 696,
      "vpunpckhwd": 697,
      "movsw": 698,
      "pcmpeqb": 699,
      "bnd": 700,
      "vmovsd": 701,
      "jnp": 702,
      "packuswb": 703,
      "##up": 704,
      "vz": 705,
      "##pp": 706,
      "##erou": 707,
      "vzerou": 708,
      "##pper": 709,
      "vzeroupper": 710,
      "andpd": 711,
      "fadd": 712,
      "##sd2ss": 713,
      "cvtps2pd": 714,
      "##2ps": 715,
      "fil": 716,
      "fild": 717,
      "##ss2sd": 718,
      "vpa": 719,
      "vpunpcklbw": 720,
      "##last": 721,
      "fcom": 722,
      "vmovhps": 723,
      "xg": 724,
      "##bv": 725,
      "##etbv": 726,
      "scasb": 727,
      "xgetbv": 728,
      "psllw": 729,
      "sal": 730,
      "##mskb": 731,
      "pm": 732,
      "cvtsd2ss": 733,
      "cvtss2sd": 734,
      "setae": 735,
      "##64": 736,
      "fmul": 737,
      "vpaddw": 738,
      "##ubw": 739,
      "vpsubw": 740,
      "##se": 741,
      "##ti128": 742,
      "pmullw": 743,
      "vpunpckhbw": 744,
      "unpcklpd": 745,
      "end": 746,
      "##br64": 747,
      "endbr64": 748,
      "vmovq": 749,
      "##gt": 750,
      "aaa": 751,
      "pmovmskb": 752,
      "addpd": 753,
      "mm1": 754,
      "vinserti128": 755,
      "vpack": 756,
      "les": 757,
      "##sc": 758,
      "##hpd": 759,
      "punpckhqdq": 760,
      "vfmadd2": 761,
      "psrlq": 762,
      "punpckhdq": 763,
      "bsr": 764,
      "vmovd": 765,
      "min": 766,
      "mm2": 767,
      "cq": 768,
      "zmmword": 769,
      "cqo": 770,
      "##hw": 771,
      "repz": 772,
      "mm3": 773,
      "pcmpgt": 774,
      "vpsl": 775,
      "##132ps": 776,
      "vpackssdw": 777,
      "pmax": 778,
      "lodsb": 779,
      "setbe": 780,
      "##tsc": 781,
      "rdtsc": 782,
      "pcmpeqw": 783,
      "##13ps": 784,
      "fl": 785,
      "##dcw": 786,
      "unpcklps": 787,
      "fldcw": 788,
      "max": 789,
      "##re": 790,
      "mm5": 791,
      "mm4": 792,
      "pcmpeqd": 793,
      "aas": 794,
      "vc": 795,
      "##hlps": 796,
      "##ltps": 797,
      "std": 798,
      "vcvt": 799,
      "hlt": 800,
      "pre": 801,
      "##fet": 802,
      "prefet": 803,
      "prefetch": 804,
      "##t0": 805,
      "vfmadd132ps": 806,
      "prefetcht0": 807,
      "##2x": 808,
      "mm6": 809,
      "cvtps2dq": 810,
      "outsw": 811,
      "vfmadd213ps": 812,
      "##ilps": 813,
      "zmm4": 814,
      "vpermilps": 815,
      "##sq": 816,
      "##bl": 817,
      "zmm3": 818,
      "mm7": 819,
      "orps": 820,
      "##ss2si": 821,
      "##ter": 822,
      "movhlps": 823,
      "fsub": 824,
      "setge": 825,
      "cmpn": 826,
      "cvttss2si": 827,
      "fr": 828,
      "popfd": 829,
      "subps": 830,
      "##ddup": 831,
      "pmulld": 832,
      "pcmpgtd": 833,
      "movhps": 834,
      "##xord": 835,
      "vpxord": 836,
      "vpsraw": 837,
      "pmaxsw": 838,
      "##am": 839,
      "movddup": 840,
      "fxam": 841,
      "cli": 842,
      "setle": 843,
      "##8b": 844,
      "cmpxchg8b": 845,
      "aad": 846,
      "##cl": 847,
      "##ra": 848,
      "##lhps": 849,
      "rdra": 850,
      "stosq": 851,
      "vinsertf128": 852,
      "rdrand": 853,
      "en": 854,
      "##ed": 855,
      "rdse": 856,
      "enter": 857,
      "rdseed": 858,
      "##omp": 859,
      "##at": 860,
      "##nps": 861,
      "cmpsb": 862,
      "pmovzx": 863,
      "fmulp": 864,
      "minsd": 865,
      "orpd": 866,
      "bsf": 867,
      "##mc": 868,
      "##cxz": 869,
      "movsq": 870,
      "ld": 871,
      "paddusw": 872,
      "lds": 873,
      "fa": 874,
      "scasd": 875,
      "fabs": 876,
      "cmc": 877,
      "xl": 878,
      "##nt": 879,
      "pshufhw": 880,
      "##atb": 881,
      "xlatb": 882,
      "##use": 883,
      "pause": 884,
      "jecxz": 885,
      "repne": 886,
      "fiadd": 887,
      "vpslldq": 888,
      "##cw": 889,
      "##rt": 890,
      "##bsw": 891,
      "pabsw": 892,
      "unpckhpd": 893,
      "fnstcw": 894,
      "movlhps": 895,
      "zmm6": 896,
      "lc": 897,
      "lcall": 898,
      "fdiv": 899,
      "popaw": 900,
      "zmm24": 901,
      "andnps": 902,
      "la": 903,
      "maxsd": 904,
      "##end": 905,
      "lahf": 906,
      "cwd": 907,
      "vmovss": 908,
      "zmm25": 909,
      "vunpcklpd": 910,
      "##dup": 911,
      "##shdup": 912,
      "vmovshdup": 913,
      "cwde": 914,
      "vpermq": 915,
      "psllq": 916,
      "cbw": 917,
      "##stor": 918,
      "vaesenclast": 919,
      "unpckhps": 920,
      "##uc": 921,
      "cmpsd": 922,
      "salc": 923,
      "##blend": 924,
      "frstor": 925,
      "fldl": 926,
      "pmulhw": 927,
      "fist": 928,
      "pmovzxwd": 929,
      "stc": 930,
      "fld1": 931,
      "psubsw": 932,
      "zmm26": 933,
      "aesenclast": 934,
      "##wb": 935,
      "vmovdqu8": 936,
      "##sswb": 937,
      "fldz": 938,
      "packsswb": 939,
      "zmm17": 940,
      "vunpckhpd": 941,
      "cmovo": 942,
      "vpsrlw": 943,
      "faddp": 944,
      "vpsllw": 945,
      "vcmp": 946,
      "loope": 947,
      "fcomp": 948,
      "cmpnltps": 949,
      "##2dq": 950,
      "##npd": 951,
      "setnp": 952,
      "##qrt": 953,
      "repe": 954,
      "subpd": 955,
      "sqrt": 956,
      "into": 957,
      "##cal": 958,
      "andnpd": 959,
      "fscal": 960,
      "fscale": 961,
      "lj": 962,
      "vand": 963,
      "zmm27": 964,
      "vunpckhps": 965,
      "vunpcklps": 966,
      "ljmp": 967,
      "##pd2dq": 968,
      "vpsrldq": 969,
      "fncl": 970,
      "fnclex": 971,
      "vpbl": 972,
      "##endd": 973,
      "fnin": 974,
      "##ps2dq": 975,
      "vpblendd": 976,
      "fninit": 977,
      "fuc": 978,
      "k1": 979,
      "##32x": 980,
      "movlps": 981,
      "vbroadcastf128": 982,
      "zmm10": 983,
      "##32x4": 984,
      "pblend": 985,
      "cmpnl": 986,
      "zmm5": 987,
      "cvttpd2dq": 988,
      "shufpd": 989,
      "aam": 990,
      "pmin": 991,
      "##cnt": 992,
      "##fq": 993,
      "##zcnt": 994,
      "##pd2ps": 995,
      "cvtpd2ps": 996,
      "zmm23": 997,
      "aesdeclast": 998,
      "##m1": 999
    }
  }
}