{
  "version": "1.0",
  "truncation": null,
  "padding": null,
  "added_tokens": [
    {
      "id": 0,
      "content": "<UNK>",
      "single_word": true,
      "lstrip": false,
      "rstrip": false,
      "normalized": false,
      "special": true
    },
    {
      "id": 1,
      "content": "<SEP>",
      "single_word": true,
      "lstrip": false,
      "rstrip": false,
      "normalized": false,
      "special": true
    },
    {
      "id": 2,
      "content": "<MASK>",
      "single_word": true,
      "lstrip": false,
      "rstrip": false,
      "normalized": false,
      "special": true
    },
    {
      "id": 3,
      "content": "<CLS>",
      "single_word": true,
      "lstrip": false,
      "rstrip": false,
      "normalized": false,
      "special": true
    },
    {
      "id": 4,
      "content": "<HEX>",
      "single_word": true,
      "lstrip": false,
      "rstrip": false,
      "normalized": false,
      "special": true
    },
    {
      "id": 5,
      "content": "<OFFSET>",
      "single_word": true,
      "lstrip": false,
      "rstrip": false,
      "normalized": false,
      "special": true
    }
  ],
  "normalizer": null,
  "pre_tokenizer": {
    "type": "Sequence",
    "pretokenizers": [
      {
        "type": "Split",
        "pattern": {
          "String": "<[^>]+>|\\[[^\\]]+\\]|\\w+"
        },
        "behavior": "Isolated",
        "invert": false
      },
      {
        "type": "Whitespace"
      }
    ]
  },
  "post_processor": null,
  "decoder": null,
  "model": {
    "type": "WordPiece",
    "unk_token": "<UNK>",
    "continuing_subword_prefix": "##",
    "max_input_chars_per_word": 100,
    "vocab": {
      "<UNK>": 0,
      "<SEP>": 1,
      "<MASK>": 2,
      "<CLS>": 3,
      "<HEX>": 4,
      "<OFFSET>": 5,
      "(": 6,
      ")": 7,
      "*": 8,
      "+": 9,
      "-": 10,
      "0": 11,
      "1": 12,
      "2": 13,
      "3": 14,
      "4": 15,
      "5": 16,
      "6": 17,
      "7": 18,
      "8": 19,
      "9": 20,
      ":": 21,
      "<": 22,
      ">": 23,
      "E": 24,
      "F": 25,
      "H": 26,
      "O": 27,
      "P": 28,
      "S": 29,
      "T": 30,
      "X": 31,
      "[": 32,
      "]": 33,
      "_": 34,
      "a": 35,
      "b": 36,
      "c": 37,
      "d": 38,
      "e": 39,
      "f": 40,
      "g": 41,
      "h": 42,
      "i": 43,
      "j": 44,
      "k": 45,
      "l": 46,
      "m": 47,
      "n": 48,
      "o": 49,
      "p": 50,
      "q": 51,
      "r": 52,
      "s": 53,
      "t": 54,
      "u": 55,
      "v": 56,
      "w": 57,
      "x": 58,
      "y": 59,
      "z": 60,
      "{": 61,
      "}": 62,
      "##m": 63,
      "##o": 64,
      "##v": 65,
      "##a": 66,
      "##3": 67,
      "##e": 68,
      "##s": 69,
      "##n": 70,
      "##c": 71,
      "##t": 72,
      "##5": 73,
      "##d": 74,
      "##p": 75,
      "##l": 76,
      "##y": 77,
      "##b": 78,
      "##r": 79,
      "##1": 80,
      "##0": 81,
      "##2": 82,
      "##9": 83,
      "##q": 84,
      "##6": 85,
      "##4": 86,
      "##u": 87,
      "##h": 88,
      "##i": 89,
      "##w": 90,
      "##g": 91,
      "##x": 92,
      "##k": 93,
      "##z": 94,
      "##8": 95,
      "##f": 96,
      "##H": 97,
      "##E": 98,
      "##X": 99,
      "##>": 100,
      "##7": 101,
      "##_": 102,
      "##O": 103,
      "##F": 104,
      "##S": 105,
      "##T": 106,
      "##j": 107,
      "##[": 108,
      "##P": 109,
      "##SE": 110,
      "<SE": 111,
      "##P>": 112,
      "<H": 113,
      "##EX": 114,
      "<HEX": 115,
      "##tr": 116,
      "ptr": 117,
      "##ov": 118,
      "mov": 119,
      "##or": 120,
      "##ax": 121,
      "##ord": 122,
      "##word": 123,
      "eax": 124,
      "##cx": 125,
      "dword": 126,
      "eb": 127,
      "<O": 128,
      "##FF": 129,
      "##T>": 130,
      "##SET>": 131,
      "<OFF": 132,
      "in": 133,
      "int": 134,
      "int3": 135,
      "pu": 136,
      "##sh": 137,
      "push": 138,
      "ebp": 139,
      "ed": 140,
      "##sp": 141,
      "qword": 142,
      "rax": 143,
      "##al": 144,
      "ecx": 145,
      "##all": 146,
      "call": 147,
      "##si": 148,
      "##mp": 149,
      "rcx": 150,
      "##dd": 151,
      "add": 152,
      "rb": 153,
      "rsp": 154,
      "rd": 155,
      "esi": 156,
      "le": 157,
      "lea": 158,
      "##op": 159,
      "##te": 160,
      "##yte": 161,
      "byte": 162,
      "edx": 163,
      "##mm": 164,
      "r1": 165,
      "ri": 166,
      "rip": 167,
      "edi": 168,
      "pop": 169,
      "al": 170,
      "rbx": 171,
      "xmm": 172,
      "ebx": 173,
      "cmp": 174,
      "jmp": 175,
      "rdx": 176,
      "esp": 177,
      "je": 178,
      "##st": 179,
      "te": 180,
      "test": 181,
      "r8": 182,
      "xor": 183,
      "rdi": 184,
      "rbp": 185,
      "jn": 186,
      "rsi": 187,
      "jne": 188,
      "##et": 189,
      "ret": 190,
      "##ub": 191,
      "sub": 192,
      "nop": 193,
      "r9": 194,
      "word": 195,
      "r14": 196,
      "xmm0": 197,
      "r8d": 198,
      "##nd": 199,
      "and": 200,
      "##ps": 201,
      "ymm": 202,
      "xmmword": 203,
      "r15": 204,
      "##zx": 205,
      "movzx": 206,
      "r12": 207,
      "inc": 208,
      "sh": 209,
      "##dq": 210,
      "r9d": 211,
      "r13": 212,
      "xmm1": 213,
      "or": 214,
      "r10": 215,
      "jb": 216,
      "movs": 217,
      ":[": 218,
      "r11": 219,
      "ja": 220,
      "ax": 221,
      "##ups": 222,
      "movups": 223,
      "##ec": 224,
      "dec": 225,
      "cl": 226,
      "##ul": 227,
      "##mov": 228,
      "dl": 229,
      "shl": 230,
      "js": 231,
      "shr": 232,
      "movsx": 233,
      "##sd": 234,
      "mova": 235,
      "##mul": 236,
      "movdq": 237,
      "##ck": 238,
      "dx": 239,
      "imul": 240,
      "jl": 241,
      "bl": 242,
      "jae": 243,
      "xmm2": 244,
      "movsxd": 245,
      "r14d": 246,
      "jbe": 247,
      "es": 248,
      "##add": 249,
      "movaps": 250,
      "cmov": 251,
      "cdq": 252,
      "xmm6": 253,
      "r10d": 254,
      "lo": 255,
      "movdqa": 256,
      "##iv": 257,
      "vp": 258,
      "##dc": 259,
      "xmm3": 260,
      "movsd": 261,
      "ah": 262,
      "jg": 263,
      "cs": 264,
      "lock": 265,
      "adc": 266,
      "vmov": 267,
      "r15d": 268,
      "r12d": 269,
      "ymm1": 270,
      "cx": 271,
      "ymmword": 272,
      "xmm4": 273,
      "jle": 274,
      "r11d": 275,
      "##div": 276,
      "idiv": 277,
      "jns": 278,
      "r13d": 279,
      "xmm7": 280,
      "##sb": 281,
      "dh": 282,
      "ou": 283,
      "out": 284,
      "xmm5": 285,
      "xorps": 286,
      "vmovdq": 287,
      "sb": 288,
      "sbb": 289,
      "ch": 290,
      "##ne": 291,
      "##il": 292,
      "st": 293,
      "##np": 294,
      "##npck": 295,
      "sa": 296,
      "vmovdqu": 297,
      "movdqu": 298,
      "ymm0": 299,
      "ro": 300,
      "rol": 301,
      "fs": 302,
      "sar": 303,
      "##xor": 304,
      "set": 305,
      "jge": 306,
      "ymm5": 307,
      "ymm4": 308,
      "sto": 309,
      "mul": 310,
      "gs": 311,
      "##bs": 312,
      "##pl": 313,
      "movabs": 314,
      "ymm7": 315,
      "ymm3": 316,
      "##ve": 317,
      "##addd": 318,
      "leave": 319,
      "ymm6": 320,
      "ymm2": 321,
      "##pd": 322,
      "punpck": 323,
      "ne": 324,
      "neg": 325,
      "movq": 326,
      "##uf": 327,
      "xmm8": 328,
      "##ch": 329,
      "##ld": 330,
      "outsd": 331,
      "ps": 332,
      "dil": 333,
      "outsb": 334,
      "setne": 335,
      "se": 336,
      "sete": 337,
      "##chg": 338,
      "bx": 339,
      "##shuf": 340,
      "re": 341,
      "rep": 342,
      "popal": 343,
      "rc": 344,
      "xmm9": 345,
      "r8b": 346,
      "rcl": 347,
      "xadd": 348,
      "cmove": 349,
      "##vt": 350,
      "stosd": 351,
      "##ss": 352,
      "div": 353,
      "pxor": 354,
      "ror": 355,
      "cvt": 356,
      "punpckl": 357,
      "##wd": 358,
      "ar": 359,
      "arpl": 360,
      "si": 361,
      "sil": 362,
      "cmovne": 363,
      "bh": 364,
      "insb": 365,
      "##sw": 366,
      "vpaddd": 367,
      "bt": 368,
      "xmm10": 369,
      "vpxor": 370,
      "##stp": 371,
      "di": 372,
      "fstp": 373,
      "mulsd": 374,
      "no": 375,
      "not": 376,
      "vps": 377,
      "cmova": 378,
      "xchg": 379,
      "psr": 380,
      "jo": 381,
      "##om": 382,
      "padd": 383,
      "paddd": 384,
      "##unpck": 385,
      "bpl": 386,
      "movd": 387,
      "r9b": 388,
      "movss": 389,
      "##bw": 390,
      "##omi": 391,
      "cmovb": 392,
      "vpunpck": 393,
      "xmm11": 394,
      "addsd": 395,
      "vmova": 396,
      "vmovaps": 397,
      "bp": 398,
      "##er": 399,
      "##28": 400,
      "zmm": 401,
      "##128": 402,
      "xmm12": 403,
      "##qdq": 404,
      "##madd": 405,
      "##xchg": 406,
      "cmpxchg": 407,
      "pshuf": 408,
      "shld": 409,
      "##omisd": 410,
      "insd": 411,
      "vmovdqa": 412,
      "stosb": 413,
      "punpckh": 414,
      "vpshuf": 415,
      "vpsr": 416,
      "##en": 417,
      "r8w": 418,
      "xmm13": 419,
      "##ou": 420,
      "r14b": 421,
      "r15b": 422,
      "##lpd": 423,
      "subsd": 424,
      "##enc": 425,
      "r12b": 426,
      "cmovg": 427,
      "movsb": 428,
      "r13b": 429,
      "pa": 430,
      "vper": 431,
      "fld": 432,
      "vperm": 433,
      "##i128": 434,
      "movapd": 435,
      "mm": 436,
      "##maddwd": 437,
      "paddw": 438,
      "cdqe": 439,
      "vpsrld": 440,
      "bou": 441,
      "bound": 442,
      "r10b": 443,
      "##si2": 444,
      "cvtsi2": 445,
      "##ldq": 446,
      "vadd": 447,
      "cmovae": 448,
      "movlpd": 449,
      "##ast": 450,
      "##br": 451,
      "vperm2": 452,
      "xmm15": 453,
      "xmm14": 454,
      "comisd": 455,
      "##lw": 456,
      "vpunpckh": 457,
      "##lld": 458,
      "##es": 459,
      "punpcklbw": 460,
      "##esenc": 461,
      "psrld": 462,
      "ymm11": 463,
      "psub": 464,
      "##ns": 465,
      "vshuf": 466,
      "vshufps": 467,
      "punpcklwd": 468,
      "cmovl": 469,
      "##sub": 470,
      "punpcklqdq": 471,
      "r9w": 472,
      "pshufd": 473,
      "##oa": 474,
      "##dcast": 475,
      "##broa": 476,
      "##broadcast": 477,
      "ymm9": 478,
      "cp": 479,
      "##ui": 480,
      "cpui": 481,
      "cpuid": 482,
      "divsd": 483,
      "vaddps": 484,
      "##subps": 485,
      "lod": 486,
      "vmul": 487,
      "stosw": 488,
      "vpshufb": 489,
      "ymm13": 490,
      "uc": 491,
      "##sd2": 492,
      "vperm2i128": 493,
      "ymm15": 494,
      "paddq": 495,
      "ymm8": 496,
      "pmaddwd": 497,
      "pmul": 498,
      "vmulps": 499,
      "ymm12": 500,
      "cvtt": 501,
      "vpslld": 502,
      "##dq2": 503,
      "ds": 504,
      "va": 505,
      "pushal": 506,
      "cvtsi2sd": 507,
      "##cmp": 508,
      "##ad": 509,
      "vpunpckl": 510,
      "r11b": 511,
      "vpor": 512,
      "cvtdq2": 513,
      "da": 514,
      "sp": 515,
      "punpckhwd": 516,
      "ymm14": 517,
      "zmm2": 518,
      "loop": 519,
      "jp": 520,
      "vpshufd": 521,
      "r15w": 522,
      "psubw": 523,
      "pcmp": 524,
      "r14w": 525,
      "##it": 526,
      "##sd2si": 527,
      "##f128": 528,
      "clc": 529,
      "cvttsd2si": 530,
      "vsubps": 531,
      "mulss": 532,
      "pack": 533,
      "##esd": 534,
      "ymm10": 535,
      "setg": 536,
      "##ins": 537,
      "btr": 538,
      "shuf": 539,
      "wa": 540,
      "wait": 541,
      "cmovs": 542,
      "vbroadcast": 543,
      "punpckldq": 544,
      "cmovge": 545,
      "r13w": 546,
      "##esdec": 547,
      "ucomisd": 548,
      "shufps": 549,
      "bsw": 550,
      "##ap": 551,
      "bswap": 552,
      "r12w": 553,
      "mulps": 554,
      "##omiss": 555,
      "setb": 556,
      "shrd": 557,
      "bts": 558,
      "##gn": 559,
      "##ign": 560,
      "##align": 561,
      "ss": 562,
      "##eq": 563,
      "##hps": 564,
      "##alignr": 565,
      "cmovbe": 566,
      "vaesenc": 567,
      "psl": 568,
      "palignr": 569,
      "lodsd": 570,
      "punpckhbw": 571,
      "##sdw": 572,
      "r10w": 573,
      "cvtdq2pd": 574,
      "pcmpeq": 575,
      "aesenc": 576,
      "seta": 577,
      "psrldq": 578,
      "##ssdw": 579,
      "unpck": 580,
      "vxor": 581,
      "por": 582,
      "vpadd": 583,
      "vxorps": 584,
      "##aw": 585,
      "andps": 586,
      "##udq": 587,
      "pshufb": 588,
      "pmuludq": 589,
      "pand": 590,
      "retf": 591,
      "das": 592,
      "cvtsi2ss": 593,
      "r11w": 594,
      "addss": 595,
      "vmovups": 596,
      "loopne": 597,
      "vpmaddwd": 598,
      "addps": 599,
      "##fd": 600,
      "##ps2": 601,
      "jno": 602,
      "zmm1": 603,
      "##lps": 604,
      "##hf": 605,
      "##fenc": 606,
      "##fence": 607,
      "aesdec": 608,
      "fn": 609,
      "lfence": 610,
      "psrad": 611,
      "cmovle": 612,
      "##insr": 613,
      "##ex": 614,
      "pinsr": 615,
      "vf": 616,
      "##tf128": 617,
      "mm0": 618,
      "vpunpckhqdq": 619,
      "vpunpcklqdq": 620,
      "xword": 621,
      "xorpd": 622,
      "packssdw": 623,
      "cvtps2": 624,
      "daa": 625,
      "##usw": 626,
      "setl": 627,
      "##upd": 628,
      "vpbroadcast": 629,
      "movupd": 630,
      "vpbroadcastd": 631,
      "##13": 632,
      "sahf": 633,
      "##ss2": 634,
      "vpunpckldq": 635,
      "vpunpckhdq": 636,
      "fx": 637,
      "ud": 638,
      "ud2": 639,
      "cmovns": 640,
      "pinsrw": 641,
      "divss": 642,
      "vfmadd": 643,
      "pshuflw": 644,
      "sc": 645,
      "cld": 646,
      "sca": 647,
      "##extr": 648,
      "##lt": 649,
      "##in": 650,
      "##adbw": 651,
      "paddsw": 652,
      "pushfd": 653,
      "psadbw": 654,
      "aa": 655,
      "comiss": 656,
      "##ac": 657,
      "psraw": 658,
      "vins": 659,
      "vinser": 660,
      "ucomiss": 661,
      "##ubsw": 662,
      "##maddubsw": 663,
      "rcr": 664,
      "pmov": 665,
      "fc": 666,
      "vextr": 667,
      "vextrac": 668,
      "fnst": 669,
      "pslld": 670,
      "psrlw": 671,
      "cvtdq2ps": 672,
      "vpaddq": 673,
      "lodsw": 674,
      "bs": 675,
      "pslldq": 676,
      "vbroadcasti128": 677,
      "vunpck": 678,
      "zmm0": 679,
      "vperm2f128": 680,
      "vextractf128": 681,
      "vbroadcastss": 682,
      "subss": 683,
      "vaddsubps": 684,
      "##lq": 685,
      "##uswb": 686,
      "pmaddubsw": 687,
      "mulpd": 688,
      "psubd": 689,
      "vaesdec": 690,
      "##sk": 691,
      "fi": 692,
      "##msk": 693,
      "vpunpcklwd": 694,
      "vpunpckhwd": 695,
      "fxch": 696,
      "pcmpeqb": 697,
      "movsw": 698,
      "bnd": 699,
      "vmovsd": 700,
      "packuswb": 701,
      "##up": 702,
      "vz": 703,
      "##pp": 704,
      "##erou": 705,
      "vzerou": 706,
      "##pper": 707,
      "vzeroupper": 708,
      "##sd2ss": 709,
      "cvtps2pd": 710,
      "##2ps": 711,
      "##ss2sd": 712,
      "vpa": 713,
      "vpunpcklbw": 714,
      "fnstsw": 715,
      "fil": 716,
      "##last": 717,
      "fild": 718,
      "jnp": 719,
      "vmovhps": 720,
      "xg": 721,
      "##bv": 722,
      "##etbv": 723,
      "xgetbv": 724,
      "psllw": 725,
      "pm": 726,
      "##mskb": 727,
      "cvtsd2ss": 728,
      "cvtss2sd": 729,
      "setae": 730,
      "fcom": 731,
      "##64": 732,
      "scasb": 733,
      "andpd": 734,
      "vpaddw": 735,
      "##ubw": 736,
      "vpsubw": 737,
      "##se": 738,
      "##ti128": 739,
      "pmullw": 740,
      "vpunpckhbw": 741,
      "end": 742,
      "fadd": 743,
      "##br64": 744,
      "endbr64": 745,
      "vmovq": 746,
      "##gt": 747,
      "unpcklpd": 748,
      "pmovmskb": 749,
      "vinserti128": 750,
      "vpack": 751,
      "punpckhqdq": 752,
      "vfmadd2": 753,
      "fmul": 754,
      "##hpd": 755,
      "punpckhdq": 756,
      "##sc": 757,
      "bsr": 758,
      "sal": 759,
      "vmovd": 760,
      "min": 761,
      "mm1": 762,
      "cq": 763,
      "zmmword": 764,
      "cqo": 765,
      "##hw": 766,
      "addpd": 767,
      "pcmpgt": 768,
      "psrlq": 769,
      "vpsl": 770,
      "repz": 771,
      "mm2": 772,
      "##132ps": 773,
      "vpackssdw": 774,
      "pmax": 775,
      "setbe": 776,
      "##tsc": 777,
      "rdtsc": 778,
      "mm3": 779,
      "pcmpeqw": 780,
      "##13ps": 781,
      "unpcklps": 782,
      "max": 783,
      "les": 784,
      "aaa": 785,
      "pcmpeqd": 786,
      "vc": 787,
      "##re": 788,
      "##hlps": 789,
      "##ltps": 790,
      "vcvt": 791,
      "lodsb": 792,
      "pre": 793,
      "##fet": 794,
      "prefet": 795,
      "prefetch": 796,
      "##t0": 797,
      "vfmadd132ps": 798,
      "prefetcht0": 799,
      "hlt": 800,
      "cvtps2dq": 801,
      "mm5": 802,
      "vfmadd213ps": 803,
      "##ilps": 804,
      "zmm4": 805,
      "vpermilps": 806,
      "mm4": 807,
      "##sq": 808,
      "##bl": 809,
      "##2x": 810,
      "zmm3": 811,
      "fl": 812,
      "##dcw": 813,
      "fldcw": 814,
      "orps": 815,
      "##ss2si": 816,
      "movhlps": 817,
      "mm6": 818,
      "cvttss2si": 819,
      "setge": 820,
      "subps": 821,
      "##ddup": 822,
      "cmpn": 823,
      "mm7": 824,
      "pmulld": 825,
      "pcmpgtd": 826,
      "movhps": 827,
      "fsub": 828,
      "##xord": 829,
      "vpxord": 830,
      "vpsraw": 831,
      "pmaxsw": 832,
      "fr": 833,
      "movddup": 834,
      "aas": 835,
      "popfd": 836,
      "setle": 837,
      "##8b": 838,
      "cmpxchg8b": 839,
      "##lhps": 840,
      "stosq": 841,
      "vinsertf128": 842,
      "cli": 843,
      "std": 844,
      "##am": 845,
      "##and": 846,
      "##cl": 847,
      "##rand": 848,
      "rdrand": 849,
      "fxam": 850,
      "##ed": 851,
      "rdse": 852,
      "rdseed": 853,
      "##nps": 854,
      "outsw": 855,
      "pmovzx": 856,
      "minsd": 857,
      "aad": 858,
      "bsf": 859,
      "movsq": 860,
      "##cxz": 861,
      "paddusw": 862,
      "##nt": 863,
      "##ter": 864,
      "pshufhw": 865,
      "##use": 866,
      "pause": 867,
      "repne": 868,
      "fiadd": 869,
      "fmulp": 870,
      "jecxz": 871,
      "scasd": 872,
      "vpslldq": 873,
      "cmpsb": 874,
      "##bsw": 875,
      "pabsw": 876,
      "movlhps": 877,
      "orpd": 878,
      "unpckhpd": 879,
      "zmm6": 880,
      "##at": 881,
      "xl": 882,
      "zmm24": 883,
      "##atb": 884,
      "xlatb": 885,
      "fa": 886,
      "##rt": 887,
      "andnps": 888,
      "fabs": 889,
      "maxsd": 890,
      "##end": 891,
      "popaw": 892,
      "fdiv": 893,
      "vmovss": 894,
      "zmm25": 895,
      "vunpcklpd": 896,
      "##dup": 897,
      "##shdup": 898,
      "vmovshdup": 899,
      "vpermq": 900,
      "cbw": 901,
      "ld": 902,
      "##omp": 903,
      "lds": 904,
      "vaesenclast": 905,
      "unpckhps": 906,
      "##mc": 907,
      "##uc": 908,
      "##blend": 909,
      "pmulhw": 910,
      "en": 911,
      "lc": 912,
      "##stor": 913,
      "pmovzxwd": 914,
      "enter": 915,
      "lcall": 916,
      "cmc": 917,
      "fldl": 918,
      "psubsw": 919,
      "zmm26": 920,
      "frstor": 921,
      "aesenclast": 922,
      "##wb": 923,
      "cmpsd": 924,
      "vmovdqu8": 925,
      "##sswb": 926,
      "packsswb": 927,
      "zmm17": 928,
      "vunpckhpd": 929,
      "cmovo": 930,
      "vpsrlw": 931,
      "vpsllw": 932,
      "vcmp": 933,
      "cmpnltps": 934,
      "psllq": 935,
      "fist": 936,
      "##cw": 937,
      "##2dq": 938,
      "setnp": 939,
      "fnstcw": 940,
      "##npd": 941,
      "loope": 942,
      "la": 943,
      "repe": 944,
      "lahf": 945,
      "subpd": 946,
      "faddp": 947,
      "into": 948,
      "andnpd": 949,
      "vand": 950,
      "zmm27": 951,
      "vunpckhps": 952,
      "vunpcklps": 953,
      "sq": 954,
      "##pd2dq": 955,
      "vpsrldq": 956,
      "sqrt": 957,
      "lj": 958,
      "vpbl": 959,
      "##endd": 960,
      "##ps2dq": 961,
      "ljmp": 962,
      "vpblendd": 963,
      "cwd": 964,
      "fld1": 965,
      "fnin": 966,
      "fncl": 967,
      "fninit": 968,
      "fnclex": 969,
      "fuc": 970,
      "k1": 971,
      "##32x": 972,
      "movlps": 973,
      "vbroadcastf128": 974,
      "zmm10": 975,
      "cwde": 976,
      "##32x4": 977,
      "pblend": 978,
      "zmm5": 979,
      "cvttpd2dq": 980,
      "pmin": 981,
      "##cal": 982,
      "##cnt": 983,
      "##zcnt": 984,
      "##fq": 985,
      "fscal": 986,
      "##pd2ps": 987,
      "cvtpd2ps": 988,
      "zmm23": 989,
      "aesdeclast": 990,
      "fscale": 991,
      "cmpnl": 992,
      "pblendw": 993,
      "pcl": 994,
      "##nltps": 995,
      "##uw": 996,
      "shrx": 997,
      "##mulqdq": 998,
      "zmm28": 999
    }
  }
}