{
  "version": "1.0",
  "truncation": null,
  "padding": null,
  "added_tokens": [
    {
      "id": 0,
      "content": "<UNK>",
      "single_word": true,
      "lstrip": false,
      "rstrip": false,
      "normalized": false,
      "special": true
    },
    {
      "id": 1,
      "content": "<SEP>",
      "single_word": true,
      "lstrip": false,
      "rstrip": false,
      "normalized": false,
      "special": true
    },
    {
      "id": 2,
      "content": "<MASK>",
      "single_word": true,
      "lstrip": false,
      "rstrip": false,
      "normalized": false,
      "special": true
    },
    {
      "id": 3,
      "content": "<CLS>",
      "single_word": true,
      "lstrip": false,
      "rstrip": false,
      "normalized": false,
      "special": true
    },
    {
      "id": 4,
      "content": "<HEX>",
      "single_word": true,
      "lstrip": false,
      "rstrip": false,
      "normalized": false,
      "special": true
    },
    {
      "id": 5,
      "content": "<OFFSET>",
      "single_word": true,
      "lstrip": false,
      "rstrip": false,
      "normalized": false,
      "special": true
    }
  ],
  "normalizer": null,
  "pre_tokenizer": {
    "type": "Sequence",
    "pretokenizers": [
      {
        "type": "Split",
        "pattern": {
          "String": "<[^>]+>|\\[[^\\]]+\\]|\\w+"
        },
        "behavior": "Isolated",
        "invert": false
      },
      {
        "type": "Whitespace"
      }
    ]
  },
  "post_processor": null,
  "decoder": null,
  "model": {
    "type": "WordPiece",
    "unk_token": "<UNK>",
    "continuing_subword_prefix": "##",
    "max_input_chars_per_word": 100,
    "vocab": {
      "<UNK>": 0,
      "<SEP>": 1,
      "<MASK>": 2,
      "<CLS>": 3,
      "<HEX>": 4,
      "<OFFSET>": 5,
      "0": 6,
      "1": 7,
      "2": 8,
      "3": 9,
      "7": 10,
      "8": 11,
      "<": 12,
      ">": 13,
      "E": 14,
      "P": 15,
      "S": 16,
      "_": 17,
      "a": 18,
      "b": 19,
      "c": 20,
      "d": 21,
      "e": 22,
      "f": 23,
      "g": 24,
      "h": 25,
      "i": 26,
      "j": 27,
      "k": 28,
      "l": 29,
      "m": 30,
      "n": 31,
      "o": 32,
      "p": 33,
      "q": 34,
      "r": 35,
      "s": 36,
      "t": 37,
      "u": 38,
      "v": 39,
      "w": 40,
      "x": 41,
      "y": 42,
      "z": 43,
      "##a": 44,
      "##b": 45,
      "##s": 46,
      "##n": 47,
      "##t": 48,
      "##1": 49,
      "##o": 50,
      "##v": 51,
      "##u": 52,
      "##p": 53,
      "##l": 54,
      "##d": 55,
      "##q": 56,
      "##f": 57,
      "##c": 58,
      "##m": 59,
      "##e": 60,
      "##r": 61,
      "##z": 62,
      "##x": 63,
      "##i": 64,
      "##h": 65,
      "##g": 66,
      "##2": 67,
      "##S": 68,
      "##E": 69,
      "##P": 70,
      "##>": 71,
      "##w": 72,
      "##y": 73,
      "##8": 74,
      "##k": 75,
      "##0": 76,
      "##7": 77,
      "##_": 78,
      "##3": 79,
      "##j": 80,
      "<S": 81,
      "##EP": 82,
      "<SEP": 83,
      "##ov": 84,
      "mov": 85,
      "##sh": 86,
      "pu": 87,
      "push": 88,
      "ad": 89,
      "add": 90,
      "in": 91,
      "##al": 92,
      "##all": 93,
      "call": 94,
      "int": 95,
      "int3": 96,
      "##mp": 97,
      "##op": 98,
      "le": 99,
      "lea": 100,
      "pop": 101,
      "cmp": 102,
      "je": 103,
      "##or": 104,
      "##st": 105,
      "##est": 106,
      "test": 107,
      "xor": 108,
      "jn": 109,
      "jne": 110,
      "jmp": 111,
      "##et": 112,
      "inc": 113,
      "ret": 114,
      "##nd": 115,
      "and": 116,
      "##ub": 117,
      "sub": 118,
      "##dq": 119,
      "or": 120,
      "jb": 121,
      "##ec": 122,
      "dec": 123,
      "##sd": 124,
      "##zx": 125,
      "movzx": 126,
      "ou": 127,
      "out": 128,
      "##sb": 129,
      "adc": 130,
      "##ul": 131,
      "ja": 132,
      "sh": 133,
      "##mul": 134,
      "##dd": 135,
      "imul": 136,
      "js": 137,
      "nop": 138,
      "jl": 139,
      "jae": 140,
      "movdq": 141,
      "##mov": 142,
      "vp": 143,
      "sb": 144,
      "sbb": 145,
      "##add": 146,
      "outsd": 147,
      "##ld": 148,
      "movdqa": 149,
      "shr": 150,
      "popal": 151,
      "shl": 152,
      "##addd": 153,
      "##xor": 154,
      "outsb": 155,
      "jns": 156,
      "cdq": 157,
      "insb": 158,
      "vmov": 159,
      "vmovdq": 160,
      "jg": 161,
      "jbe": 162,
      "movs": 163,
      "jle": 164,
      "st": 165,
      "movsx": 166,
      "##iv": 167,
      "##rp": 168,
      "arp": 169,
      "arpl": 170,
      "lo": 171,
      "##ve": 172,
      "leave": 173,
      "##ch": 174,
      "##chg": 175,
      "pxor": 176,
      "##ps": 177,
      "vmovdqu": 178,
      "paddd": 179,
      "xchg": 180,
      "##div": 181,
      "##ck": 182,
      "ps": 183,
      "cmov": 184,
      "sto": 185,
      "jo": 186,
      "jge": 187,
      "movsxd": 188,
      "idiv": 189,
      "##uf": 190,
      "##shuf": 191,
      "ro": 192,
      "rol": 193,
      "##ne": 194,
      "set": 195,
      "##ups": 196,
      "movups": 197,
      "ne": 198,
      "neg": 199,
      "insd": 200,
      "sa": 201,
      "movsd": 202,
      "##rld": 203,
      "##lld": 204,
      "movdqu": 205,
      "rc": 206,
      "aa": 207,
      "vpaddd": 208,
      "##np": 209,
      "stosd": 210,
      "pshuf": 211,
      "##npck": 212,
      "sar": 213,
      "vpxor": 214,
      "loop": 215,
      "rcl": 216,
      "psrld": 217,
      "pslld": 218,
      "##ou": 219,
      "da": 220,
      "bou": 221,
      "bound": 222,
      "por": 223,
      "fi": 224,
      "##ep": 225,
      "rep": 226,
      "lock": 227,
      "pshufb": 228,
      "##ot": 229,
      "##stp": 230,
      "sete": 231,
      "ror": 232,
      "lod": 233,
      "##unpck": 234,
      "vpunpck": 235,
      "vpshuf": 236,
      "fstp": 237,
      "vmovdqa": 238,
      "pushal": 239,
      "mova": 240,
      "stosb": 241,
      "setne": 242,
      "not": 243,
      "cmovne": 244,
      "##ca": 245,
      "cl": 246,
      "loopne": 247,
      "##qdq": 248,
      "mul": 249,
      "movsb": 250,
      "punpck": 251,
      "das": 252,
      "vps": 253,
      "sca": 254,
      "div": 255,
      "##fd": 256,
      "##er": 257,
      "retf": 258,
      "xadd": 259,
      "daa": 260,
      "fld": 261,
      "##sw": 262,
      "cmova": 263,
      "##hf": 264,
      "jno": 265,
      "aaa": 266,
      "vpshufd": 267,
      "clc": 268,
      "sal": 269,
      "jp": 270,
      "xorps": 271,
      "aas": 272,
      "##co": 273,
      "##ldq": 274,
      "lodsd": 275,
      "jnp": 276,
      "shld": 277,
      "##lt": 278,
      "hlt": 279,
      "cmove": 280,
      "vpunpckh": 281,
      "cld": 282,
      "##bs": 283,
      "movaps": 284,
      "cmovl": 285,
      "movabs": 286,
      "std": 287,
      "sti": 288,
      "movq": 289,
      "lodsb": 290,
      "cmovle": 291,
      "cmpsb": 292,
      "##it": 293,
      "##lqdq": 294,
      "fild": 295,
      "aam": 296,
      "scasb": 297,
      "wa": 298,
      "wait": 299,
      "##cx": 300,
      "##cxz": 301,
      "jecxz": 302,
      "##wd": 303,
      "cwd": 304,
      "##nt": 305,
      "cwde": 306,
      "##mc": 307,
      "int1": 308,
      "les": 309,
      "cmc": 310,
      "##pd": 311,
      "vpshufb": 312,
      "vpsrld": 313,
      "vpslld": 314,
      "pshufd": 315,
      "##nter": 316,
      "enter": 317,
      "stc": 318,
      "pushfd": 319,
      "##rot": 320,
      "vprot": 321,
      "vprotd": 322,
      "popfd": 323,
      "bt": 324,
      "##at": 325,
      "xl": 326,
      "##atb": 327,
      "xlatb": 328,
      "##sub": 329,
      "rcr": 330,
      "salc": 331,
      "punpckh": 332,
      "cmovae": 333,
      "##com": 334,
      "sahf": 335,
      "scasd": 336,
      "##call": 337,
      "##ret": 338,
      "iret": 339,
      "iretd": 340,
      "lcall": 341,
      "vpor": 342,
      "loope": 343,
      "into": 344,
      "aad": 345,
      "cdqe": 346,
      "lj": 347,
      "ljmp": 348,
      "la": 349,
      "cli": 350,
      "lahf": 351,
      "##ds": 352,
      "cmpsd": 353,
      "##12": 354,
      "##i12": 355,
      "##i128": 356,
      "stosw": 357,
      "fdiv": 358,
      "punpckldq": 359,
      "fn": 360,
      "vpunpckldq": 361,
      "vpunpcklqdq": 362,
      "vpunpckhdq": 363,
      "vpunpckhqdq": 364,
      "lds": 365,
      "movl": 366,
      "movlpd": 367,
      "fsub": 368,
      "cmovb": 369,
      "fmul": 370,
      "fadd": 371,
      "##xchg": 372,
      "cmpxchg": 373,
      "##m2": 374,
      "vper": 375,
      "##m2i128": 376,
      "vperm2i128": 377,
      "cv": 378,
      "cvt": 379,
      "fcom": 380,
      "fistp": 381,
      "fnst": 382,
      "##ad": 383,
      "shrd": 384,
      "##comp": 385,
      "movd": 386,
      "setg": 387,
      "fiadd": 388,
      "punpcklqdq": 389,
      "punpckhdq": 390,
      "punpckhqdq": 391,
      "##si": 392,
      "fist": 393,
      "##aw": 394,
      "fnstsw": 395,
      "fidiv": 396,
      "fcomp": 397,
      "fisub": 398,
      "##ns": 399,
      "cmovo": 400,
      "##br": 401,
      "##oad": 402,
      "##cast": 403,
      "##broad": 404,
      "##broadcast": 405,
      "popaw": 406,
      "##ss": 407,
      "##ldt": 408,
      "seto": 409,
      "cvtsi": 410,
      "cvtsi2": 411,
      "sldt": 412,
      "outsw": 413,
      "bnd": 414,
      "fdivr": 415,
      "movss": 416,
      "fc": 417,
      "##tp": 418,
      "fisttp": 419,
      "fcmov": 420,
      "cmovg": 421,
      "##cw": 422,
      "##cmp": 423,
      "cvtsi2sd": 424,
      "movsw": 425,
      "vpbroadcast": 426,
      "fb": 427,
      "fsubr": 428,
      "vpbroadcastd": 429,
      "##eq": 430,
      "##cmpeq": 431,
      "##en": 432,
      "cmovns": 433,
      "cmovs": 434,
      "mulsd": 435,
      "fimul": 436,
      "##ms": 437,
      "setb": 438,
      "rd": 439,
      "##isd": 440,
      "##cmpeqb": 441,
      "fst": 442,
      "##id": 443,
      "bts": 444,
      "##lw": 445,
      "pshuflw": 446,
      "cp": 447,
      "##uid": 448,
      "cpuid": 449,
      "##hw": 450,
      "pshufhw": 451,
      "lodsw": 452,
      "ud": 453,
      "##bw": 454,
      "ud2": 455,
      "xorpd": 456,
      "cmovge": 457,
      "fbld": 458,
      "pal": 459,
      "##nr": 460,
      "##ig": 461,
      "palig": 462,
      "palignr": 463,
      "##sc": 464,
      "ficom": 465,
      "##kb": 466,
      "##movms": 467,
      "##movmskb": 468,
      "##addq": 469,
      "##and": 470,
      "ucom": 471,
      "cmovbe": 472,
      "subsd": 473,
      "addsd": 474,
      "co": 475,
      "com": 476,
      "fnstcw": 477,
      "pcmpeqb": 478,
      "fx": 479,
      "fidivr": 480,
      "fcmovu": 481,
      "##2si": 482,
      "cvtt": 483,
      "##tsc": 484,
      "rdtsc": 485,
      "comisd": 486,
      "fr": 487,
      "##ave": 488,
      "##save": 489,
      "vpaddq": 490,
      "repne": 491,
      "fnsave": 492,
      "##sd2si": 493,
      "ficomp": 494,
      "cvttsd2si": 495,
      "fisubr": 496,
      "fldcw": 497,
      "##nop": 498,
      "##80": 499,
      "##87": 500,
      "##_nop": 501,
      "##8087": 502,
      "##8087_nop": 503,
      "fen": 504,
      "##i8087_nop": 505,
      "feni8087_nop": 506,
      "pmovmskb": 507,
      "divsd": 508,
      "##lbw": 509,
      "bs": 510,
      "seta": 511,
      "btr": 512,
      "fcmovn": 513,
      "setl": 514,
      "fmulp": 515,
      "##stor": 516,
      "frstor": 517,
      "vz": 518,
      "vbroadcast": 519,
      "##pp": 520,
      "##iss": 521,
      "vmovd": 522,
      "##oupp": 523,
      "##eroupp": 524,
      "vzeroupp": 525,
      "vbroadcasti128": 526,
      "vzeroupper": 527,
      "psr": 528,
      "fldz": 529,
      "bsf": 530,
      "fcmovnu": 531,
      "##env": 532,
      "##ins": 533,
      "fu": 534,
      "##ee": 535,
      "ucomiss": 536,
      "bsw": 537,
      "##ap": 538,
      "bswap": 539,
      "vins": 540,
      "##ti128": 541,
      "setnp": 542,
      "##erti128": 543,
      "vinserti128": 544,
      "ucomisd": 545,
      "fxch": 546,
      "punpcklbw": 547,
      "fdivp": 548,
      "setge": 549,
      "##8b": 550,
      "cmpxchg8b": 551,
      "pa": 552,
      "##rand": 553,
      "rdrand": 554,
      "rds": 555,
      "##eed": 556,
      "rdseed": 557,
      "##ce": 558,
      "faddp": 559,
      "cvtsi2ss": 560,
      "vpcmpeqb": 561,
      "vmovups": 562,
      "fa": 563,
      "fabs": 564,
      "fldenv": 565,
      "##am": 566,
      "##re": 567,
      "fxam": 568,
      "fucom": 569,
      "##2pd": 570,
      "##2x": 571,
      "cbw": 572,
      "vand": 573,
      "fldl": 574,
      "vandpd": 575,
      "fch": 576,
      "##se": 577,
      "repz": 578,
      "fchs": 579,
      "vpmovmskb": 580,
      "fbstp": 581,
      "##nce": 582,
      "fstpnce": 583,
      "psraw": 584,
      "##use": 585,
      "pause": 586,
      "##2sd": 587,
      "cvtss": 588,
      "cvtss2sd": 589,
      "mulpd": 590,
      "cvtps": 591,
      "##mms": 592,
      "cvtps2pd": 593,
      "##ex": 594,
      "mulss": 595,
      "fp": 596,
      "fsc": 597,
      "##ale": 598,
      "fsubrp": 599,
      "fscale": 600,
      "##be": 601,
      "scasw": 602,
      "xg": 603,
      "##bv": 604,
      "##etbv": 605,
      "divss": 606,
      "fld1": 607,
      "xgetbv": 608,
      "paddq": 609,
      "##cnt": 610,
      "popcnt": 611,
      "pand": 612,
      "##m1": 613,
      "vmovq": 614,
      "setns": 615,
      "fcmovbe": 616,
      "##lex": 617,
      "##clex": 618,
      "##in": 619,
      "vpunpcklbw": 620,
      "fnclex": 621,
      "pcmp": 622,
      "movapd": 623,
      "fpre": 624,
      "##int": 625,
      "##ndint": 626,
      "setbe": 627,
      "frndint": 628,
      "cvtdq": 629,
      "f2x": 630,
      "addss": 631,
      "f2xm1": 632,
      "unpck": 633,
      "ft": 634,
      "fy": 635,
      "##l2x": 636,
      "fucomp": 637,
      "fldl2": 638,
      "fprem": 639,
      "ftst": 640,
      "fyl2x": 641,
      "fnstenv": 642,
      "##g2": 643,
      "repe": 644,
      "fldlg2": 645,
      "fldl2t": 646,
      "##usw": 647,
      "psad": 648,
      "psrldq": 649,
      "psadbw": 650,
      "fe": 651,
      "femms": 652,
      "sy": 653,
      "##lq": 654,
      "##ckusw": 655,
      "packusw": 656,
      "packuswb": 657,
      "pre": 658,
      "##fet": 659,
      "prefet": 660,
      "prefetch": 661,
      "pmul": 662,
      "fnin": 663,
      "fninit": 664,
      "addpd": 665,
      "sys": 666,
      "lf": 667,
      "##udq": 668,
      "##ri": 669,
      "##ence": 670,
      "pmuludq": 671,
      "lfence": 672,
      "ff": 673,
      "setle": 674,
      "psrlq": 675,
      "##fq": 676,
      "##hps": 677,
      "sets": 678,
      "##cos": 679,
      "bsr": 680,
      "syscall": 681,
      "fcos": 682,
      "setae": 683,
      "cvtdq2pd": 684,
      "emms": 685,
      "##rldq": 686,
      "vpsrldq": 687,
      "prefetchw": 688,
      "##ree": 689,
      "comiss": 690,
      "ffree": 691,
      "##rw": 692,
      "##2ps": 693,
      "psub": 694,
      "cvtdq2ps": 695,
      "cq": 696,
      "##test": 697,
      "##gt": 698,
      "##estri": 699,
      "vptest": 700,
      "fdivrp": 701,
      "vpbroadcastb": 702,
      "pcmpgt": 703,
      "pcmpestri": 704,
      "unpckl": 705,
      "cqo": 706,
      "##sr": 707,
      "##vd": 708,
      "##csr": 709,
      "##mx": 710,
      "##stx": 711,
      "movlps": 712,
      "bndstx": 713,
      "unpckhps": 714,
      "##mxcsr": 715,
      "fsi": 716,
      "pcmpeq": 717,
      "movnt": 718,
      "stmxcsr": 719,
      "mulps": 720,
      "fsin": 721,
      "pcmpeqw": 722,
      "pushfq": 723,
      "fsubp": 724,
      "##ss2si": 725,
      "cvttss2si": 726,
      "pcmpgtd": 727,
      "fucompi": 728,
      "unpcklpd": 729,
      "pf": 730,
      "pex": 731,
      "##no": 732,
      "##nc": 733,
      "##trw": 734,
      "##qr": 735,
      "popfq": 736,
      "psl": 737,
      "finc": 738,
      "fcomi": 739,
      "movntq": 740,
      "pfcmpeq": 741,
      "pextrw": 742,
      "##qrt": 743,
      "fincstp": 744,
      "##an": 745,
      "##ist": 746,
      "movsq": 747,
      "cmovno": 748,
      "pcmpist": 749,
      "pcmpistri": 750,
      "wb": 751,
      "##ax": 752,
      "str": 753,
      "##atan": 754,
      "fcmovne": 755,
      "fpatan": 756,
      "##invd": 757,
      "wbinvd": 758,
      "lldt": 759,
      "pm": 760,
      "pins": 761,
      "##pmc": 762,
      "vpand": 763,
      "##ldx": 764,
      "bndldx": 765,
      "##msr": 766,
      "rdpmc": 767,
      "fcmovnb": 768,
      "##qrtps": 769,
      "sqrtps": 770,
      "##hpd": 771,
      "subpd": 772,
      "shuf": 773,
      "lar": 774,
      "ud0": 775,
      "fcmovnbe": 776,
      "##reep": 777,
      "unpckhpd": 778,
      "ffreep": 779,
      "psubd": 780,
      "psllq": 781,
      "##sq": 782,
      "##pi": 783,
      "movhps": 784,
      "pushaw": 785,
      "invd": 786,
      "subss": 787,
      "stosq": 788,
      "fcompp": 789,
      "fucompp": 790,
      "psubsw": 791,
      "pinsrw": 792,
      "lid": 793,
      "padd": 794,
      "sg": 795,
      "##dt": 796,
      "##2pi": 797,
      "andpd": 798,
      "rdmsr": 799,
      "##senter": 800,
      "fprem1": 801,
      "sysenter": 802,
      "##axsw": 803,
      "pmaxsw": 804,
      "lidt": 805,
      "sgdt": 806,
      "ls": 807,
      "min": 808,
      "max": 809,
      "vm": 810,
      "##ts": 811,
      "insw": 812,
      "orpd": 813,
      "clts": 814,
      "cvtsd2si": 815,
      "fcmovb": 816,
      "unpcklps": 817,
      "pslldq": 818,
      "shufps": 819,
      "lsl": 820,
      "fs": 821,
      "fd": 822,
      "get": 823,
      "jr": 824,
      "ver": 825,
      "vcmp": 826,
      "wr": 827,
      "##sec": 828,
      "##ra": 829,
      "pshufw": 830,
      "movlhps": 831,
      "cvtps2pi": 832,
      "sysret": 833,
      "psubusw": 834,
      "shufpd": 835,
      "minsd": 836,
      "fsqrt": 837,
      "getsec": 838,
      "jrcxz": 839,
      "verr": 840,
      "vcmpps": 841,
      "wrmsr": 842,
      "##n2": 843,
      "##t0": 844,
      "##rb": 845,
      "##rit": 846,
      "##writ": 847,
      "cmpsw": 848,
      "cmplt": 849,
      "andps": 850,
      "##ecstp": 851,
      "##ps2pi": 852,
      "setp": 853,
      "notra": 854,
      "btc": 855,
      "fnop": 856,
      "fcompi": 857,
      "cvttps2pi": 858,
      "##read": 859,
      "fldln2": 860,
      "##insw": 861,
      "fldl2e": 862,
      "prefetcht0": 863,
      "pcmpgtb": 864,
      "movntps": 865,
      "pminsw": 866,
      "pinsrb": 867,
      "paddsw": 868,
      "maxps": 869,
      "vmwrit": 870,
      "vmread": 871,
      "fdecstp": 872,
      "cmpltpd": 873,
      "notrack": 874,
      "vmwrite": 875,
      "lt": 876,
      "ld": 877,
      "pi": 878,
      "rs": 879,
      "sm": 880,
      "vcom": 881,
      "xa": 882,
      "xre": 883,
      "##ase": 884,
      "##bor": 885,
      "##tan": 886,
      "##tra": 887,
      "##uw": 888,
      "##le": 889,
      "##lps": 890,
      "##fw": 891,
      "##ct": 892,
      "##mot": 893,
      "##emot": 894,
      "##isi": 895,
      "##huw": 896,
      "##hlps": 897,
      "##2fw": 898,
      "movhlps": 899,
      "pushf": 900,
      "addps": 901,
      "##addwd": 902,
      "setno": 903,
      "divps": 904,
      "fldpi": 905,
      "cldemot": 906,
      "punpckhbw": 907,
      "fcmove": 908,
      "fxsave": 909,
      "fxtra": 910,
      "fucomi": 911,
      "fptan": 912,
      "pandn": 913,
      "pmulhw": 914,
      "pmulhuw": 915,
      "psubq": 916,
      "pcmpgtw": 917,
      "movnti": 918,
      "fsincos": 919,
      "pmaddwd": 920,
      "paddb": 921,
      "paddsb": 922,
      "paddusw": 923,
      "minps": 924,
      "maxsd": 925,
      "maxss": 926,
      "fdisi": 927,
      "ltr": 928,
      "ldmxcsr": 929,
      "pi2fw": 930,
      "rsqrtps": 931,
      "smsw": 932,
      "vcomiss": 933,
      "xabor": 934,
      "xrele": 935,
      "cldemote": 936,
      "fxtract": 937,
      "fdisi8087_nop": 938,
      "xabort": 939,
      "xrelease": 940
    }
  }
}