{
  "version": "1.0",
  "truncation": null,
  "padding": null,
  "added_tokens": [
    {
      "id": 0,
      "content": "<UNK>",
      "single_word": true,
      "lstrip": false,
      "rstrip": false,
      "normalized": false,
      "special": true
    },
    {
      "id": 1,
      "content": "<SEP>",
      "single_word": true,
      "lstrip": false,
      "rstrip": false,
      "normalized": false,
      "special": true
    },
    {
      "id": 2,
      "content": "<MASK>",
      "single_word": true,
      "lstrip": false,
      "rstrip": false,
      "normalized": false,
      "special": true
    },
    {
      "id": 3,
      "content": "<CLS>",
      "single_word": true,
      "lstrip": false,
      "rstrip": false,
      "normalized": false,
      "special": true
    },
    {
      "id": 4,
      "content": "<HEX>",
      "single_word": true,
      "lstrip": false,
      "rstrip": false,
      "normalized": false,
      "special": true
    },
    {
      "id": 5,
      "content": "<OFFSET>",
      "single_word": true,
      "lstrip": false,
      "rstrip": false,
      "normalized": false,
      "special": true
    }
  ],
  "normalizer": null,
  "pre_tokenizer": {
    "type": "Sequence",
    "pretokenizers": [
      {
        "type": "Split",
        "pattern": {
          "String": "<[^>]+>|\\[[^\\]]+\\]|\\w+"
        },
        "behavior": "Isolated",
        "invert": false
      },
      {
        "type": "Whitespace"
      }
    ]
  },
  "post_processor": null,
  "decoder": null,
  "model": {
    "type": "WordPiece",
    "unk_token": "<UNK>",
    "continuing_subword_prefix": "##",
    "max_input_chars_per_word": 100,
    "vocab": {
      "<UNK>": 0,
      "<SEP>": 1,
      "<MASK>": 2,
      "<CLS>": 3,
      "<HEX>": 4,
      "<OFFSET>": 5,
      "0": 6,
      "1": 7,
      "2": 8,
      "3": 9,
      "7": 10,
      "8": 11,
      "<": 12,
      ">": 13,
      "E": 14,
      "P": 15,
      "S": 16,
      "_": 17,
      "a": 18,
      "b": 19,
      "c": 20,
      "d": 21,
      "e": 22,
      "f": 23,
      "g": 24,
      "h": 25,
      "i": 26,
      "j": 27,
      "k": 28,
      "l": 29,
      "m": 30,
      "n": 31,
      "o": 32,
      "p": 33,
      "q": 34,
      "r": 35,
      "s": 36,
      "t": 37,
      "u": 38,
      "v": 39,
      "w": 40,
      "x": 41,
      "y": 42,
      "z": 43,
      "##u": 44,
      "##n": 45,
      "##p": 46,
      "##c": 47,
      "##k": 48,
      "##d": 49,
      "##q": 50,
      "##o": 51,
      "##m": 52,
      "##i": 53,
      "##a": 54,
      "##s": 55,
      "##r": 56,
      "##t": 57,
      "##v": 58,
      "##e": 59,
      "##2": 60,
      "##b": 61,
      "##f": 62,
      "##x": 63,
      "##z": 64,
      "##l": 65,
      "##w": 66,
      "##y": 67,
      "##h": 68,
      "##g": 69,
      "##1": 70,
      "##8": 71,
      "##0": 72,
      "##7": 73,
      "##_": 74,
      "##3": 75,
      "##j": 76,
      "##S": 77,
      "##E": 78,
      "##P": 79,
      "##>": 80,
      "<S": 81,
      "##EP": 82,
      "<SEP": 83,
      "##ov": 84,
      "mov": 85,
      "##sh": 86,
      "pu": 87,
      "push": 88,
      "ad": 89,
      "##al": 90,
      "##all": 91,
      "in": 92,
      "call": 93,
      "add": 94,
      "int": 95,
      "int3": 96,
      "##mp": 97,
      "le": 98,
      "lea": 99,
      "##op": 100,
      "pop": 101,
      "cmp": 102,
      "je": 103,
      "##st": 104,
      "##or": 105,
      "##est": 106,
      "test": 107,
      "xor": 108,
      "jn": 109,
      "jne": 110,
      "jmp": 111,
      "##et": 112,
      "ret": 113,
      "##ub": 114,
      "sub": 115,
      "##nd": 116,
      "inc": 117,
      "and": 118,
      "sh": 119,
      "or": 120,
      "adc": 121,
      "##zx": 122,
      "movzx": 123,
      "jb": 124,
      "##ul": 125,
      "##ec": 126,
      "dec": 127,
      "##mul": 128,
      "imul": 129,
      "##dq": 130,
      "shl": 131,
      "ja": 132,
      "##sd": 133,
      "shr": 134,
      "nop": 135,
      "jl": 136,
      "##sb": 137,
      "ou": 138,
      "out": 139,
      "jae": 140,
      "js": 141,
      "sb": 142,
      "sbb": 143,
      "cdq": 144,
      "##mov": 145,
      "movs": 146,
      "##dd": 147,
      "movsx": 148,
      "jg": 149,
      "jle": 150,
      "st": 151,
      "jbe": 152,
      "##ps": 153,
      "movdq": 154,
      "jns": 155,
      "##ch": 156,
      "##chg": 157,
      "##iv": 158,
      "sa": 159,
      "lo": 160,
      "cmov": 161,
      "xchg": 162,
      "outsd": 163,
      "popal": 164,
      "sar": 165,
      "##ve": 166,
      "leave": 167,
      "##ld": 168,
      "sto": 169,
      "##div": 170,
      "movsxd": 171,
      "outsb": 172,
      "##add": 173,
      "movdqa": 174,
      "jge": 175,
      "insb": 176,
      "ro": 177,
      "rol": 178,
      "idiv": 179,
      "##eg": 180,
      "neg": 181,
      "##ups": 182,
      "movups": 183,
      "##rp": 184,
      "arp": 185,
      "arpl": 186,
      "set": 187,
      "##ne": 188,
      "movsd": 189,
      "##ck": 190,
      "vp": 191,
      "jo": 192,
      "##xor": 193,
      "stosd": 194,
      "mul": 195,
      "##addd": 196,
      "aa": 197,
      "vmov": 198,
      "##ot": 199,
      "vmovdq": 200,
      "##stp": 201,
      "insd": 202,
      "shld": 203,
      "not": 204,
      "lock": 205,
      "ror": 206,
      "fstp": 207,
      "##ep": 208,
      "rep": 209,
      "loop": 210,
      "ps": 211,
      "pxor": 212,
      "vmovdqu": 213,
      "da": 214,
      "fi": 215,
      "movdqu": 216,
      "mova": 217,
      "paddd": 218,
      "rc": 219,
      "##fd": 220,
      "lod": 221,
      "stosb": 222,
      "cmova": 223,
      "fld": 224,
      "sete": 225,
      "##shu": 226,
      "##ou": 227,
      "cmovne": 228,
      "movq": 229,
      "bou": 230,
      "bound": 231,
      "setne": 232,
      "##ca": 233,
      "cl": 234,
      "sca": 235,
      "div": 236,
      "pushal": 237,
      "##np": 238,
      "##npck": 239,
      "xadd": 240,
      "rcl": 241,
      "cmovae": 242,
      "##sw": 243,
      "##hf": 244,
      "retf": 245,
      "das": 246,
      "psr": 247,
      "pshu": 248,
      "##lld": 249,
      "movsb": 250,
      "xorps": 251,
      "movaps": 252,
      "##er": 253,
      "vpaddd": 254,
      "loopne": 255,
      "jp": 256,
      "sal": 257,
      "por": 258,
      "cmove": 259,
      "vpxor": 260,
      "shrd": 261,
      "##fb": 262,
      "daa": 263,
      "##bs": 264,
      "bt": 265,
      "cld": 266,
      "movabs": 267,
      "lodsd": 268,
      "jnp": 269,
      "psrld": 270,
      "pslld": 271,
      "sti": 272,
      "##npckl": 273,
      "aas": 274,
      "##co": 275,
      "lodsb": 276,
      "aaa": 277,
      "jno": 278,
      "clc": 279,
      "##nt": 280,
      "scasb": 281,
      "std": 282,
      "cmovl": 283,
      "##it": 284,
      "##lt": 285,
      "hlt": 286,
      "wa": 287,
      "wait": 288,
      "##wd": 289,
      "cwd": 290,
      "pshufb": 291,
      "##at": 292,
      "cwde": 293,
      "xl": 294,
      "##atb": 295,
      "xlatb": 296,
      "stc": 297,
      "pushfd": 298,
      "##pd": 299,
      "int1": 300,
      "sahf": 301,
      "aam": 302,
      "cmpsb": 303,
      "cli": 304,
      "cmovle": 305,
      "cmovb": 306,
      "salc": 307,
      "##cx": 308,
      "##cxz": 309,
      "##nter": 310,
      "enter": 311,
      "movd": 312,
      "jecxz": 313,
      "aad": 314,
      "cmpsd": 315,
      "##mc": 316,
      "lj": 317,
      "ljmp": 318,
      "cmc": 319,
      "##ret": 320,
      "scasd": 321,
      "iret": 322,
      "iretd": 323,
      "loope": 324,
      "into": 325,
      "rcr": 326,
      "##sub": 327,
      "##qdq": 328,
      "vmovdqa": 329,
      "vpu": 330,
      "popfd": 331,
      "vpshu": 332,
      "fild": 333,
      "punpckl": 334,
      "##vt": 335,
      "cvt": 336,
      "##call": 337,
      "la": 338,
      "lcall": 339,
      "lahf": 340,
      "##si": 341,
      "fco": 342,
      "fadd": 343,
      "les": 344,
      "fn": 345,
      "##npckh": 346,
      "fdiv": 347,
      "stosw": 348,
      "setg": 349,
      "##ds": 350,
      "movl": 351,
      "fmul": 352,
      "lds": 353,
      "movlpd": 354,
      "vps": 355,
      "fnst": 356,
      "fsub": 357,
      "##xchg": 358,
      "cmpxchg": 359,
      "##ldq": 360,
      "vpshufd": 361,
      "cdqe": 362,
      "fiadd": 363,
      "punpckldq": 364,
      "bsw": 365,
      "##ap": 366,
      "bswap": 367,
      "vpunpckl": 368,
      "seto": 369,
      "vpunpckh": 370,
      "##ns": 371,
      "cmovo": 372,
      "ud": 373,
      "##ss": 374,
      "pshufd": 375,
      "fist": 376,
      "##en": 377,
      "##cmp": 378,
      "##si2": 379,
      "cvtsi2": 380,
      "bts": 381,
      "fcomp": 382,
      "fcom": 383,
      "ud2": 384,
      "cvtt": 385,
      "##2si": 386,
      "fnstsw": 387,
      "vpsr": 388,
      "vpshufb": 389,
      "vpslld": 390,
      "vpsrld": 391,
      "cvtsi2sd": 392,
      "bnd": 393,
      "fisub": 394,
      "movss": 395,
      "pal": 396,
      "##nr": 397,
      "##ig": 398,
      "palig": 399,
      "palignr": 400,
      "##rot": 401,
      "vprot": 402,
      "vprotd": 403,
      "cmovns": 404,
      "punpckh": 405,
      "punpcklqdq": 406,
      "fico": 407,
      "fidiv": 408,
      "##eq": 409,
      "psrldq": 410,
      "fistp": 411,
      "##cw": 412,
      "##cmpeq": 413,
      "psl": 414,
      "vpor": 415,
      "cmovg": 416,
      "##ms": 417,
      "setb": 418,
      "pa": 419,
      "##tp": 420,
      "fisttp": 421,
      "##id": 422,
      "movsw": 423,
      "mulsd": 424,
      "fdivr": 425,
      "##28": 426,
      "##128": 427,
      "fc": 428,
      "fcmov": 429,
      "cp": 430,
      "##uid": 431,
      "cpuid": 432,
      "pcmpeq": 433,
      "fst": 434,
      "pslldq": 435,
      "##i128": 436,
      "fsubr": 437,
      "##32": 438,
      "vpunpckldq": 439,
      "vpunpcklqdq": 440,
      "vpunpckhdq": 441,
      "vpunpckhqdq": 442,
      "##ldt": 443,
      "##msk": 444,
      "cmovs": 445,
      "setge": 446,
      "sldt": 447,
      "##movmsk": 448,
      "##movmskb": 449,
      "##aw": 450,
      "fx": 451,
      "pand": 452,
      "##env": 453,
      "##ce": 454,
      "vmovdqu32": 455,
      "fb": 456,
      "cmovbe": 457,
      "##ss2si": 458,
      "cvttss2si": 459,
      "vz": 460,
      "##pp": 461,
      "##oupp": 462,
      "##eroupp": 463,
      "vzeroupp": 464,
      "vzeroupper": 465,
      "##mi": 466,
      "pcmpeqb": 467,
      "##m2": 468,
      "vper": 469,
      "##m2i128": 470,
      "vperm2i128": 471,
      "##ad": 472,
      "fimul": 473,
      "##uf": 474,
      "shuf": 475,
      "popaw": 476,
      "shufps": 477,
      "pshuf": 478,
      "ficomp": 479,
      "pmovmskb": 480,
      "outsw": 481,
      "fnstcw": 482,
      "repne": 483,
      "##sd2si": 484,
      "cvttsd2si": 485,
      "fisubr": 486,
      "rd": 487,
      "addsd": 488,
      "fidivr": 489,
      "fxch": 490,
      "faddp": 491,
      "movnt": 492,
      "punpckhdq": 493,
      "punpckhqdq": 494,
      "fldz": 495,
      "psub": 496,
      "bs": 497,
      "ficom": 498,
      "fdivp": 499,
      "##sc": 500,
      "##fen": 501,
      "##fence": 502,
      "##bw": 503,
      "fldenv": 504,
      "##lw": 505,
      "seta": 506,
      "fldcw": 507,
      "##re": 508,
      "fbld": 509,
      "##ave": 510,
      "##save": 511,
      "fr": 512,
      "##oad": 513,
      "##road": 514,
      "##broad": 515,
      "##cast": 516,
      "##broadcast": 517,
      "movapd": 518,
      "fnsave": 519,
      "##misd": 520,
      "bsf": 521,
      "##tsc": 522,
      "rdtsc": 523,
      "btr": 524,
      "fu": 525,
      "fuco": 526,
      "divsd": 527,
      "cmovge": 528,
      "pshuflw": 529,
      "lodsw": 530,
      "fmulp": 531,
      "co": 532,
      "subsd": 533,
      "fcmovn": 534,
      "vpbroadcast": 535,
      "##lq": 536,
      "sfence": 537,
      "##stor": 538,
      "movntdq": 539,
      "vpbroadcastd": 540,
      "frstor": 541,
      "fch": 542,
      "fchs": 543,
      "fcmovu": 544,
      "psubq": 545,
      "fld1": 546,
      "setl": 547,
      "comisd": 548,
      "fnstenv": 549,
      "##hw": 550,
      "uco": 551,
      "xorpd": 552,
      "ff": 553,
      "ffre": 554,
      "##be": 555,
      "fbstp": 556,
      "ud0": 557,
      "repe": 558,
      "pshufhw": 559,
      "fucomp": 560,
      "punpcklbw": 561,
      "##ra": 562,
      "##ex": 563,
      "setns": 564,
      "##nce": 565,
      "fstpnce": 566,
      "##cs": 567,
      "##mx": 568,
      "##ins": 569,
      "##csr": 570,
      "##mxcsr": 571,
      "bz": 572,
      "kmov": 573,
      "##hi": 574,
      "bzhi": 575,
      "kmovd": 576,
      "ffree": 577,
      "fcos": 578,
      "##miss": 579,
      "movntps": 580,
      "fcmovnu": 581,
      "cvtsi2ss": 582,
      "fcmovbe": 583,
      "fsubp": 584,
      "pcmpeqw": 585,
      "##test": 586,
      "psrlq": 587,
      "fa": 588,
      "fabs": 589,
      "vmovups": 590,
      "vmovd": 591,
      "vmovdqu8": 592,
      "pcmp": 593,
      "##mms": 594,
      "ae": 595,
      "lfence": 596,
      "##neq": 597,
      "##cl": 598,
      "mulpd": 599,
      "kor": 600,
      "vpcmp": 601,
      "##testw": 602,
      "##neqd": 603,
      "kortestw": 604,
      "vpcmpneqd": 605,
      "psubd": 606,
      "fncl": 607,
      "fnclex": 608,
      "vins": 609,
      "##ert": 610,
      "vinsert": 611,
      "btc": 612,
      "##2pd": 613,
      "vpcmpeq": 614,
      "##bv": 615,
      "##etbv": 616,
      "psllq": 617,
      "xg": 618,
      "vpad": 619,
      "xgetbv": 620,
      "vpaddq": 621,
      "fe": 622,
      "##2x": 623,
      "ucomisd": 624,
      "femms": 625,
      "##ri": 626,
      "##am": 627,
      "fxam": 628,
      "vmovnt": 629,
      "##nop": 630,
      "##80": 631,
      "##87": 632,
      "##_nop": 633,
      "##8087": 634,
      "##8087_nop": 635,
      "fen": 636,
      "##i8087_nop": 637,
      "vpmovmskb": 638,
      "feni8087_nop": 639,
      "setbe": 640,
      "stmxcsr": 641,
      "repz": 642,
      "##ist": 643,
      "fldl": 644,
      "pcmpist": 645,
      "pcmpistri": 646,
      "rdra": 647,
      "rdrand": 648,
      "##se": 649,
      "vpcmpeqb": 650,
      "fp": 651,
      "##int": 652,
      "##ndint": 653,
      "frndint": 654,
      "##2sd": 655,
      "andpd": 656,
      "cvtss": 657,
      "cvtss2sd": 658,
      "fucom": 659,
      "cbw": 660,
      "addpd": 661,
      "scasw": 662,
      "cvtdq": 663,
      "##use": 664,
      "pause": 665,
      "aes": 666,
      "##fq": 667,
      "addss": 668,
      "ucomiss": 669,
      "vbroadcast": 670,
      "vbroadcasti128": 671,
      "fsi": 672,
      "setae": 673,
      "fsin": 674,
      "notra": 675,
      "fdivrp": 676,
      "notrack": 677,
      "ku": 678,
      "##npckdq": 679,
      "vmovdqa32": 680,
      "kunpckdq": 681,
      "##hps": 682,
      "vmova": 683,
      "##tr": 684,
      "vmovaps": 685,
      "fsc": 686,
      "##ale": 687,
      "fscale": 688,
      "rds": 689,
      "##ed": 690,
      "##eed": 691,
      "fsubrp": 692,
      "rdseed": 693,
      "movlhps": 694,
      "setnp": 695,
      "mulss": 696,
      "bsr": 697,
      "vinserti128": 698,
      "##8b": 699,
      "cmpxchg8b": 700,
      "fy": 701,
      "##l2x": 702,
      "inv": 703,
      "fyl2x": 704,
      "cvtps": 705,
      "comiss": 706,
      "ft": 707,
      "fcompi": 708,
      "ftst": 709,
      "fcomi": 710,
      "fcmovnb": 711,
      "pre": 712,
      "##fet": 713,
      "prefet": 714,
      "prefetch": 715,
      "##and": 716,
      "psraw": 717,
      "sy": 718,
      "##ssd": 719,
      "fucompp": 720,
      "ld": 721,
      "invd": 722,
      "cvtps2pd": 723,
      "ldmxcsr": 724,
      "##ddq": 725,
      "paddq": 726,
      "pandn": 727,
      "##an": 728,
      "psrlw": 729,
      "cvtdq2pd": 730,
      "divss": 731,
      "vmovntdq": 732,
      "sets": 733,
      "setle": 734,
      "vmovntps": 735,
      "sys": 736,
      "pex": 737,
      "##m1": 738,
      "##trw": 739,
      "pextrw": 740,
      "##sq": 741,
      "##f128": 742,
      "##mpre": 743,
      "vpco": 744,
      "vinsertf128": 745,
      "##mpressd": 746,
      "vpcompressd": 747,
      "fcmovnbe": 748,
      "punpckhbw": 749,
      "fcompp": 750,
      "pmul": 751,
      "vand": 752,
      "vandpd": 753,
      "padd": 754,
      "f2x": 755,
      "pushfq": 756,
      "f2xm1": 757,
      "##ke": 758,
      "##as": 759,
      "##2ps": 760,
      "##yg": 761,
      "##g2": 762,
      "##sist": 763,
      "##enas": 764,
      "fucompi": 765,
      "fldlg2": 766,
      "aesen": 767,
      "aeske": 768,
      "##ygenas": 769,
      "aeskeygenas": 770,
      "aeskeygenassist": 771,
      "##in": 772,
      "prefetchw": 773,
      "pins": 774,
      "unpckl": 775,
      "popfq": 776,
      "pinsr": 777,
      "punpcklwd": 778,
      "##simc": 779,
      "ffreep": 780,
      "aesimc": 781,
      "aesenc": 782,
      "##madd": 783,
      "fpre": 784,
      "unpckh": 785,
      "fcmovne": 786,
      "cq": 787,
      "cqo": 788,
      "##rt": 789,
      "lar": 790,
      "stosq": 791,
      "fldl2": 792,
      "cvtdq2ps": 793,
      "fprem": 794,
      "jr": 795,
      "pack": 796,
      "pcmpeqd": 797,
      "psubsw": 798,
      "jrcxz": 799,
      "##pmc": 800,
      "orpd": 801,
      "rdpmc": 802,
      "##pi": 803,
      "sysret": 804,
      "vxor": 805,
      "##cnt": 806,
      "popcnt": 807,
      "subss": 808,
      "vmovq": 809,
      "fnin": 810,
      "vxorps": 811,
      "fninit": 812,
      "pmi": 813,
      "##atan": 814,
      "fpatan": 815,
      "pmin": 816,
      "pmadd": 817,
      "##idt": 818,
      "unpcklpd": 819,
      "pmaddwd": 820,
      "sq": 821,
      "orps": 822,
      "##rtps": 823,
      "lidt": 824,
      "##msr": 825,
      "ltr": 826,
      "pf": 827,
      "pushaw": 828,
      "vpunpcklbw": 829,
      "movntq": 830,
      "paddsw": 831,
      "pminub": 832,
      "pfcmpeq": 833,
      "##tan": 834,
      "fptan": 835,
      "sqrtps": 836,
      "##usw": 837,
      "##cos": 838,
      "fsincos": 839,
      "vcmp": 840,
      "subpd": 841,
      "vcmpps": 842,
      "pinsrw": 843,
      "unpckhpd": 844,
      "fucomi": 845,
      "##n2": 846,
      "fldln2": 847,
      "packusw": 848,
      "packuswb": 849,
      "psad": 850,
      "fldl2t": 851,
      "psadbw": 852,
      "lldt": 853,
      "##nl": 854,
      "cmpnl": 855,
      "##epd": 856,
      "psrad": 857,
      "movlps": 858,
      "cmpnlepd": 859,
      "##udq": 860,
      "##gt": 861,
      "pcmpgt": 862,
      "pmuludq": 863,
      "cmpeq": 864,
      "cmpeqsd": 865,
      "emms": 866,
      "vmul": 867,
      "pshufw": 868,
      "vmulsd": 869,
      "vpcmpeqw": 870,
      "syscall": 871,
      "fcmove": 872,
      "##2ss": 873,
      "##sd2ss": 874,
      "cvtsd2ss": 875,
      "pinsrb": 876,
      "fldpi": 877,
      "##ax": 878,
      "mulps": 879,
      "rdmsr": 880,
      "vpand": 881,
      "vpsrldq": 882,
      "unpckhps": 883,
      "##nta": 884,
      "prefetchnta": 885,
      "wr": 886,
      "##2pi": 887,
      "fcmovb": 888,
      "wrmsr": 889,
      "pmulhw": 890,
      "unpcklps": 891,
      "vf": 892,
      "vadd": 893,
      "##stx": 894,
      "bndstx": 895,
      "fldl2e": 896,
      "vaddsd": 897,
      "max": 898,
      "ver": 899,
      "##no": 900,
      "##estri": 901,
      "str": 902,
      "vptest": 903,
      "vmovsd": 904,
      "vpbroadcastb": 905,
      "pcmpestri": 906,
      "pmullw": 907,
      "##madd2": 908,
      "pcmpgtd": 909,
      "vfmadd2": 910,
      "##dt": 911,
      "##ts": 912,
      "##gdt": 913,
      "insw": 914,
      "subps": 915,
      "clts": 916,
      "ls": 917,
      "sgdt": 918,
      "##nc": 919,
      "cmovno": 920,
      "finc": 921,
      "fxsave": 922,
      "##ssdw": 923,
      "packssdw": 924,
      "verr": 925,
      "lsl": 926,
      "fincstp": 927,
      "vsub": 928,
      "##pd2ps": 929,
      "cvtpd2ps": 930,
      "get": 931,
      "##pg": 932,
      "##sec": 933,
      "##rstor": 934,
      "##lpg": 935,
      "##13": 936,
      "cmpps": 937,
      "andps": 938,
      "movsq": 939,
      "fxrstor": 940,
      "##senter": 941,
      "invlpg": 942,
      "sysenter": 943,
      "paddb": 944,
      "pcmpgtb": 945,
      "vsubsd": 946,
      "getsec": 947,
      "##13sd": 948,
      "fsq": 949,
      "vco": 950,
      "wb": 951,
      "##vd": 952,
      "movhps": 953,
      "cmplt": 954,
      "##ldx": 955,
      "bndldx": 956,
      "##invd": 957,
      "fsqrt": 958,
      "wbinvd": 959,
      "##le": 960,
      "cmpsw": 961,
      "##ps2pi": 962,
      "cvttps2pi": 963,
      "cvtps2pi": 964,
      "paddw": 965,
      "maxps": 966,
      "vfmadd213sd": 967,
      "cmpltpd": 968,
      "##ast": 969,
      "fprem1": 970,
      "movmsk": 971,
      "vcomisd": 972,
      "movmskps": 973,
      "min": 974,
      "pm": 975,
      "cmple": 976,
      "fnop": 977,
      "psubsb": 978,
      "##clast": 979,
      "aesenclast": 980,
      "pmax": 981,
      "cmpleps": 982,
      "vm": 983,
      "xa": 984,
      "##1sd": 985,
      "##31sd": 986,
      "retfq": 987,
      "cvtsd2si": 988,
      "ud1": 989,
      "psllw": 990,
      "vfmadd231sd": 991,
      "pmaxsw": 992,
      "vc": 993,
      "##vg": 994,
      "cmpsq": 995,
      "pavg": 996,
      "##exit": 997,
      "sysexit": 998,
      "pcmpgtw": 999
    }
  }
}