{
  "version": "1.0",
  "truncation": null,
  "padding": null,
  "added_tokens": [
    {
      "id": 0,
      "content": "<UNK>",
      "single_word": true,
      "lstrip": false,
      "rstrip": false,
      "normalized": false,
      "special": true
    },
    {
      "id": 1,
      "content": "<SEP>",
      "single_word": true,
      "lstrip": false,
      "rstrip": false,
      "normalized": false,
      "special": true
    },
    {
      "id": 2,
      "content": "<MASK>",
      "single_word": true,
      "lstrip": false,
      "rstrip": false,
      "normalized": false,
      "special": true
    },
    {
      "id": 3,
      "content": "<CLS>",
      "single_word": true,
      "lstrip": false,
      "rstrip": false,
      "normalized": false,
      "special": true
    },
    {
      "id": 4,
      "content": "<HEX>",
      "single_word": true,
      "lstrip": false,
      "rstrip": false,
      "normalized": false,
      "special": true
    },
    {
      "id": 5,
      "content": "<OFFSET>",
      "single_word": true,
      "lstrip": false,
      "rstrip": false,
      "normalized": false,
      "special": true
    }
  ],
  "normalizer": null,
  "pre_tokenizer": {
    "type": "Sequence",
    "pretokenizers": [
      {
        "type": "Split",
        "pattern": {
          "String": "<[^>]+>|\\[[^\\]]+\\]|\\w+"
        },
        "behavior": "Isolated",
        "invert": false
      },
      {
        "type": "Whitespace"
      }
    ]
  },
  "post_processor": null,
  "decoder": null,
  "model": {
    "type": "WordPiece",
    "unk_token": "<UNK>",
    "continuing_subword_prefix": "##",
    "max_input_chars_per_word": 100,
    "vocab": {
      "<UNK>": 0,
      "<SEP>": 1,
      "<MASK>": 2,
      "<CLS>": 3,
      "<HEX>": 4,
      "<OFFSET>": 5,
      "0": 6,
      "1": 7,
      "2": 8,
      "3": 9,
      "4": 10,
      "5": 11,
      "6": 12,
      "7": 13,
      "8": 14,
      "<": 15,
      ">": 16,
      "E": 17,
      "P": 18,
      "S": 19,
      "_": 20,
      "a": 21,
      "b": 22,
      "c": 23,
      "d": 24,
      "e": 25,
      "f": 26,
      "g": 27,
      "h": 28,
      "i": 29,
      "j": 30,
      "k": 31,
      "l": 32,
      "m": 33,
      "n": 34,
      "o": 35,
      "p": 36,
      "q": 37,
      "r": 38,
      "s": 39,
      "t": 40,
      "u": 41,
      "v": 42,
      "w": 43,
      "x": 44,
      "y": 45,
      "z": 46,
      "##e": 47,
      "##x": 48,
      "##t": 49,
      "##r": 50,
      "##a": 51,
      "##c": 52,
      "##i": 53,
      "##1": 54,
      "##2": 55,
      "##8": 56,
      "##v": 57,
      "##p": 58,
      "##s": 59,
      "##u": 60,
      "##l": 61,
      "##o": 62,
      "##n": 63,
      "##q": 64,
      "##m": 65,
      "##b": 66,
      "##w": 67,
      "##d": 68,
      "##f": 69,
      "##3": 70,
      "##z": 71,
      "##h": 72,
      "##y": 73,
      "##g": 74,
      "##6": 75,
      "##4": 76,
      "##k": 77,
      "##0": 78,
      "##7": 79,
      "##_": 80,
      "##S": 81,
      "##E": 82,
      "##P": 83,
      "##>": 84,
      "##5": 85,
      "##j": 86,
      "<S": 87,
      "##EP": 88,
      "<SEP": 89,
      "##ov": 90,
      "mov": 91,
      "in": 92,
      "int": 93,
      "int3": 94,
      "##sh": 95,
      "pu": 96,
      "push": 97,
      "##dd": 98,
      "add": 99,
      "##al": 100,
      "##all": 101,
      "call": 102,
      "##mp": 103,
      "##op": 104,
      "le": 105,
      "lea": 106,
      "pop": 107,
      "cmp": 108,
      "je": 109,
      "jmp": 110,
      "##st": 111,
      "##or": 112,
      "##est": 113,
      "test": 114,
      "xor": 115,
      "jn": 116,
      "jne": 117,
      "##et": 118,
      "ret": 119,
      "##ub": 120,
      "sub": 121,
      "nop": 122,
      "##nd": 123,
      "and": 124,
      "inc": 125,
      "##dq": 126,
      "##ps": 127,
      "##zx": 128,
      "movzx": 129,
      "jb": 130,
      "##sd": 131,
      "or": 132,
      "sh": 133,
      "ja": 134,
      "##ec": 135,
      "##dc": 136,
      "dec": 137,
      "adc": 138,
      "movdq": 139,
      "##ul": 140,
      "##mov": 141,
      "##mul": 142,
      "##add": 143,
      "imul": 144,
      "##sb": 145,
      "##ups": 146,
      "movups": 147,
      "movdqa": 148,
      "ou": 149,
      "out": 150,
      "vp": 151,
      "shl": 152,
      "js": 153,
      "movs": 154,
      "jae": 155,
      "##ck": 156,
      "shr": 157,
      "movsx": 158,
      "jl": 159,
      "mova": 160,
      "##xor": 161,
      "##addd": 162,
      "vmov": 163,
      "lo": 164,
      "##ld": 165,
      "jbe": 166,
      "vmovdq": 167,
      "sb": 168,
      "sbb": 169,
      "movsxd": 170,
      "cmov": 171,
      "movaps": 172,
      "cdq": 173,
      "pxor": 174,
      "jg": 175,
      "movsd": 176,
      "ps": 177,
      "##iv": 178,
      "outsd": 179,
      "paddd": 180,
      "##ch": 181,
      "##uf": 182,
      "vmovdqu": 183,
      "##chg": 184,
      "lock": 185,
      "##np": 186,
      "##shuf": 187,
      "st": 188,
      "##npck": 189,
      "jns": 190,
      "jle": 191,
      "popal": 192,
      "set": 193,
      "insb": 194,
      "movdqu": 195,
      "xchg": 196,
      "##div": 197,
      "outsb": 198,
      "##ne": 199,
      "idiv": 200,
      "sa": 201,
      "##rp": 202,
      "ro": 203,
      "rol": 204,
      "arp": 205,
      "arpl": 206,
      "xorps": 207,
      "sto": 208,
      "sar": 209,
      "pshuf": 210,
      "##rld": 211,
      "jge": 212,
      "##npckl": 213,
      "vpaddd": 214,
      "##lld": 215,
      "##ve": 216,
      "vpxor": 217,
      "jo": 218,
      "leave": 219,
      "mul": 220,
      "##bs": 221,
      "psrld": 222,
      "rc": 223,
      "movabs": 224,
      "pslld": 225,
      "insd": 226,
      "por": 227,
      "##pd": 228,
      "ne": 229,
      "neg": 230,
      "aa": 231,
      "##npckh": 232,
      "rcl": 233,
      "pshufb": 234,
      "stosd": 235,
      "movq": 236,
      "sete": 237,
      "vpu": 238,
      "vmovdqa": 239,
      "ror": 240,
      "punpckl": 241,
      "##ep": 242,
      "rep": 243,
      "setne": 244,
      "loop": 245,
      "##wd": 246,
      "bt": 247,
      "##ot": 248,
      "div": 249,
      "##qdq": 250,
      "##ss": 251,
      "##vt": 252,
      "cvt": 253,
      "xadd": 254,
      "cmove": 255,
      "vps": 256,
      "##ou": 257,
      "vpshuf": 258,
      "da": 259,
      "cmovne": 260,
      "##om": 261,
      "##sw": 262,
      "##stp": 263,
      "bou": 264,
      "bound": 265,
      "fi": 266,
      "lod": 267,
      "##er": 268,
      "fstp": 269,
      "not": 270,
      "stosb": 271,
      "cmova": 272,
      "cl": 273,
      "punpckh": 274,
      "mulsd": 275,
      "##omi": 276,
      "movsb": 277,
      "movss": 278,
      "movd": 279,
      "cmovb": 280,
      "vpunpckl": 281,
      "padd": 282,
      "vpunpckh": 283,
      "##bw": 284,
      "sc": 285,
      "sca": 286,
      "pushal": 287,
      "##si": 288,
      "vpshufd": 289,
      "loopne": 290,
      "##fd": 291,
      "addsd": 292,
      "retf": 293,
      "pshufd": 294,
      "##hf": 295,
      "vmova": 296,
      "das": 297,
      "vmovaps": 298,
      "##omisd": 299,
      "##sub": 300,
      "##xchg": 301,
      "cmpxchg": 302,
      "jp": 303,
      "clc": 304,
      "vpsrld": 305,
      "##12": 306,
      "##128": 307,
      "jno": 308,
      "sal": 309,
      "lodsd": 310,
      "##madd": 311,
      "##lt": 312,
      "aaa": 313,
      "jnp": 314,
      "daa": 315,
      "##en": 316,
      "fld": 317,
      "shld": 318,
      "aas": 319,
      "##it": 320,
      "hlt": 321,
      "wa": 322,
      "wait": 323,
      "cld": 324,
      "punpcklqdq": 325,
      "vpshufb": 326,
      "psr": 327,
      "cmpsb": 328,
      "vpslld": 329,
      "std": 330,
      "cmovg": 331,
      "subsd": 332,
      "##xz": 333,
      "##cxz": 334,
      "fc": 335,
      "sti": 336,
      "##rot": 337,
      "vprot": 338,
      "##la": 339,
      "jecxz": 340,
      "vprotd": 341,
      "comisd": 342,
      "movl": 343,
      "##lw": 344,
      "##enc": 345,
      "pa": 346,
      "vpor": 347,
      "##si2": 348,
      "cvtsi2": 349,
      "cmovae": 350,
      "int1": 351,
      "aam": 352,
      "cdqe": 353,
      "scasb": 354,
      "vper": 355,
      "vperm": 356,
      "movapd": 357,
      "stc": 358,
      "##i128": 359,
      "##nt": 360,
      "##mc": 361,
      "##tb": 362,
      "punpckldq": 363,
      "cmc": 364,
      "movlpd": 365,
      "xla": 366,
      "xlatb": 367,
      "paddw": 368,
      "popfd": 369,
      "##maddwd": 370,
      "cwd": 371,
      "cwde": 372,
      "vadd": 373,
      "sahf": 374,
      "cmovl": 375,
      "salc": 376,
      "##ns": 377,
      "##cmp": 378,
      "les": 379,
      "lodsb": 380,
      "##br": 381,
      "punpcklbw": 382,
      "##sd2": 383,
      "pushfd": 384,
      "vperm2": 385,
      "##call": 386,
      "lcall": 387,
      "scasd": 388,
      "la": 389,
      "loope": 390,
      "lahf": 391,
      "vpunpcklqdq": 392,
      "vpunpckhqdq": 393,
      "rcr": 394,
      "cvtt": 395,
      "##es": 396,
      "##id": 397,
      "cp": 398,
      "##uid": 399,
      "cpuid": 400,
      "vpunpckldq": 401,
      "vpunpckhdq": 402,
      "##ret": 403,
      "ent": 404,
      "enter": 405,
      "iret": 406,
      "iretd": 407,
      "lj": 408,
      "cli": 409,
      "ljmp": 410,
      "uc": 411,
      "psub": 412,
      "##esenc": 413,
      "##dq2": 414,
      "vshuf": 415,
      "vshufps": 416,
      "punpcklwd": 417,
      "divsd": 418,
      "into": 419,
      "pcmp": 420,
      "setb": 421,
      "cvtdq2": 422,
      "##ast": 423,
      "##adc": 424,
      "##oadc": 425,
      "##broadc": 426,
      "##broadcast": 427,
      "vmul": 428,
      "##ldq": 429,
      "cvtsi2sd": 430,
      "vaddps": 431,
      "##subps": 432,
      "cmpsd": 433,
      "##eq": 434,
      "stosw": 435,
      "va": 436,
      "##sd2si": 437,
      "cvttsd2si": 438,
      "vperm2i128": 439,
      "paddq": 440,
      "pmaddwd": 441,
      "aad": 442,
      "pmul": 443,
      "punpckhdq": 444,
      "punpckhqdq": 445,
      "vmulps": 446,
      "fdiv": 447,
      "##ds": 448,
      "punpckhwd": 449,
      "pcmpeq": 450,
      "mulss": 451,
      "##ad": 452,
      "##omiss": 453,
      "fn": 454,
      "fcom": 455,
      "fsub": 456,
      "btr": 457,
      "psubw": 458,
      "lds": 459,
      "fild": 460,
      "cvtdq2pd": 461,
      "cmovs": 462,
      "pack": 463,
      "ucomisd": 464,
      "setg": 465,
      "##f128": 466,
      "shrd": 467,
      "##ms": 468,
      "vsubps": 469,
      "bsw": 470,
      "##ap": 471,
      "bswap": 472,
      "pshuflw": 473,
      "shuf": 474,
      "##esd": 475,
      "vpadd": 476,
      "##ins": 477,
      "cmovge": 478,
      "fist": 479,
      "cmovbe": 480,
      "fnst": 481,
      "vbroadcast": 482,
      "bts": 483,
      "##esdec": 484,
      "shufps": 485,
      "##aw": 486,
      "##msk": 487,
      "##ig": 488,
      "##ign": 489,
      "##align": 490,
      "mulps": 491,
      "##alignr": 492,
      "##movmsk": 493,
      "##movmskb": 494,
      "##omp": 495,
      "psrldq": 496,
      "seta": 497,
      "vaesenc": 498,
      "psl": 499,
      "bs": 500,
      "palignr": 501,
      "punpckhbw": 502,
      "##sdw": 503,
      "aesenc": 504,
      "fadd": 505,
      "addss": 506,
      "##ssdw": 507,
      "vxor": 508,
      "vxorps": 509,
      "cvtsi2ss": 510,
      "cmovle": 511,
      "pand": 512,
      "pcmpeqb": 513,
      "##ps2": 514,
      "andps": 515,
      "pmovmskb": 516,
      "vmovups": 517,
      "##udq": 518,
      "pmuludq": 519,
      "ud": 520,
      "vpaddq": 521,
      "ud2": 522,
      "##hw": 523,
      "bnd": 524,
      "##hps": 525,
      "##ldt": 526,
      "fistp": 527,
      "fisub": 528,
      "sldt": 529,
      "fidiv": 530,
      "vpmaddwd": 531,
      "cvtps2": 532,
      "addps": 533,
      "fmul": 534,
      "##fenc": 535,
      "##fence": 536,
      "##tp": 537,
      "fisttp": 538,
      "fcmov": 539,
      "fic": 540,
      "fnstsw": 541,
      "divss": 542,
      "aesdec": 543,
      "##ra": 544,
      "psrad": 545,
      "lfence": 546,
      "ucomiss": 547,
      "##ex": 548,
      "##usw": 549,
      "fdivr": 550,
      "##ss2": 551,
      "pshufhw": 552,
      "setl": 553,
      "##insr": 554,
      "pinsr": 555,
      "vf": 556,
      "##tf128": 557,
      "cmovns": 558,
      "fx": 559,
      "vpbroadcast": 560,
      "fcomp": 561,
      "comiss": 562,
      "vpsr": 563,
      "xorpd": 564,
      "##lq": 565,
      "packssdw": 566,
      "##adbw": 567,
      "##upd": 568,
      "movupd": 569,
      "vz": 570,
      "##pp": 571,
      "##oupp": 572,
      "##eroupp": 573,
      "vzeroupp": 574,
      "vzeroupper": 575,
      "unpckl": 576,
      "##13": 577,
      "vpbroadcastd": 578,
      "psadbw": 579,
      "fiadd": 580,
      "##ax": 581,
      "pinsrw": 582,
      "vfmadd": 583,
      "##ext": 584,
      "bsf": 585,
      "fb": 586,
      "paddsw": 587,
      "fimul": 588,
      "cvtdq2ps": 589,
      "##in": 590,
      "outsw": 591,
      "subss": 592,
      "mulpd": 593,
      "psraw": 594,
      "cvtps2pd": 595,
      "rd": 596,
      "vins": 597,
      "vinser": 598,
      "vu": 599,
      "##ubsw": 600,
      "##maddubsw": 601,
      "##rac": 602,
      "vext": 603,
      "vextrac": 604,
      "##2ps": 605,
      "lodsw": 606,
      "##uswb": 607,
      "psrlw": 608,
      "##lps": 609,
      "pslldq": 610,
      "vbroadcasti128": 611,
      "vextractf128": 612,
      "vperm2f128": 613,
      "vbroadcastss": 614,
      "vpunpcklbw": 615,
      "packuswb": 616,
      "vaddsubps": 617,
      "fxch": 618,
      "##sd2ss": 619,
      "vmovss": 620,
      "##ss2sd": 621,
      "pmaddubsw": 622,
      "vmovsd": 623,
      "xg": 624,
      "##bv": 625,
      "##etbv": 626,
      "xgetbv": 627,
      "psubd": 628,
      "fst": 629,
      "fbld": 630,
      "movsw": 631,
      "vaesdec": 632,
      "ficom": 633,
      "cvtss2sd": 634,
      "vpunpcklwd": 635,
      "cvtsd2ss": 636,
      "vpunpckhwd": 637,
      "pm": 638,
      "##sc": 639,
      "##up": 640,
      "vmovd": 641,
      "bsr": 642,
      "##re": 643,
      "vpa": 644,
      "##cw": 645,
      "fnstcw": 646,
      "##last": 647,
      "setae": 648,
      "vmovhps": 649,
      "repz": 650,
      "psllw": 651,
      "fsubr": 652,
      "##64": 653,
      "popaw": 654,
      "andpd": 655,
      "vpaddw": 656,
      "##ubw": 657,
      "vpsubw": 658,
      "addpd": 659,
      "##ti128": 660,
      "##gt": 661,
      "pmullw": 662,
      "fcmovu": 663,
      "cq": 664,
      "vpsl": 665,
      "vpunpckhbw": 666,
      "fidivr": 667,
      "unpcklpd": 668,
      "cqo": 669,
      "end": 670,
      "##br64": 671,
      "endbr64": 672,
      "##ave": 673,
      "vmovq": 674,
      "fr": 675,
      "fns": 676,
      "fnsave": 677,
      "min": 678,
      "unpckh": 679,
      "vinserti128": 680,
      "pmax": 681,
      "vpack": 682,
      "vfmadd2": 683,
      "##80": 684,
      "##87": 685,
      "##nop": 686,
      "##_nop": 687,
      "##8087": 688,
      "##8087_nop": 689,
      "fen": 690,
      "##tsc": 691,
      "##i8087_nop": 692,
      "rdtsc": 693,
      "feni8087_nop": 694,
      "setbe": 695,
      "fl": 696,
      "##dcw": 697,
      "pcmpgt": 698,
      "fldcw": 699,
      "ficomp": 700,
      "vc": 701,
      "repne": 702,
      "pre": 703,
      "##fet": 704,
      "orps": 705,
      "psrlq": 706,
      "prefet": 707,
      "prefetch": 708,
      "fu": 709,
      "fuc": 710,
      "pcmpeqw": 711,
      "##132ps": 712,
      "vpackssdw": 713,
      "unpcklps": 714,
      "max": 715,
      "##13ps": 716,
      "fcmovn": 717,
      "fdivp": 718,
      "##sq": 719,
      "vcvt": 720,
      "##hlps": 721,
      "pcmpeqd": 722,
      "##stor": 723,
      "frstor": 724,
      "##cmpeq": 725,
      "vand": 726,
      "##ltps": 727,
      "fisubr": 728,
      "vunpckl": 729,
      "setnp": 730,
      "fcmovnu": 731,
      "##t0": 732,
      "##2x": 733,
      "vfmadd132ps": 734,
      "prefetcht0": 735,
      "vpermi": 736,
      "fa": 737,
      "##bl": 738,
      "cvtps2dq": 739,
      "vfmadd213ps": 740,
      "fabs": 741,
      "vpermilps": 742,
      "##ss2si": 743,
      "vpcmpeq": 744,
      "vunpckh": 745,
      "movhlps": 746,
      "setge": 747,
      "movsq": 748,
      "cvttss2si": 749,
      "setle": 750,
      "pcmpgtd": 751,
      "movhps": 752,
      "##ddup": 753,
      "pmaxsw": 754,
      "subps": 755,
      "movnt": 756,
      "cvtpd": 757,
      "cmpn": 758,
      "##se": 759,
      "pmulld": 760,
      "##use": 761,
      "movddup": 762,
      "##movzx": 763,
      "pause": 764,
      "cvtpd2ps": 765,
      "##fq": 766,
      "vpxord": 767,
      "##env": 768,
      "vpsraw": 769,
      "##nps": 770,
      "stosq": 771,
      "vpcmpeqb": 772,
      "##cl": 773,
      "fmulp": 774,
      "minsd": 775,
      "##am": 776,
      "##8b": 777,
      "cmpxchg8b": 778,
      "fxam": 779,
      "##rand": 780,
      "rdrand": 781,
      "vinsertf128": 782,
      "rds": 783,
      "##ee": 784,
      "rdsee": 785,
      "rdseed": 786,
      "##cnt": 787,
      "vpmovmskb": 788,
      "##rt": 789,
      "pmovzx": 790,
      "paddusw": 791,
      "movlhps": 792,
      "andnps": 793,
      "repe": 794,
      "orpd": 795,
      "vpsrlq": 796,
      "unpckhpd": 797,
      "vpslldq": 798,
      "unpckhps": 799,
      "##bsw": 800,
      "pabsw": 801,
      "vandpd": 802,
      "fldenv": 803,
      "fucom": 804,
      "maxsd": 805,
      "##end": 806,
      "vunpcklpd": 807,
      "##dup": 808,
      "##shdup": 809,
      "vmovshdup": 810,
      "fldl": 811,
      "psubsw": 812,
      "vpermq": 813,
      "cbw": 814,
      "##blend": 815,
      "vaesenclast": 816,
      "##ist": 817,
      "pmulhw": 818,
      "##nc": 819,
      "cmovo": 820,
      "fbstp": 821,
      "pmovzxwd": 822,
      "fstpnc": 823,
      "movntps": 824,
      "fstpnce": 825,
      "vcmp": 826,
      "psllq": 827,
      "aesenclast": 828,
      "##wb": 829,
      "vmovdqu8": 830,
      "##sswb": 831,
      "packsswb": 832,
      "vunpckhpd": 833,
      "##mms": 834,
      "movlps": 835,
      "vpsrlw": 836,
      "vpsllw": 837,
      "faddp": 838,
      "cmpnltps": 839,
      "##2dq": 840,
      "sq": 841,
      "##npd": 842,
      "sqrt": 843,
      "pushfq": 844,
      "subpd": 845,
      "##ri": 846,
      "fncl": 847,
      "fnclex": 848,
      "fp": 849,
      "fld1": 850,
      "vdiv": 851,
      "andnpd": 852,
      "fsubrp": 853,
      "vunpcklps": 854,
      "vunpckhps": 855,
      "fnin": 856,
      "vpsrldq": 857,
      "fninit": 858,
      "fsc": 859,
      "##ale": 860,
      "vpbl": 861,
      "##endd": 862,
      "fldz": 863,
      "##ps2dq": 864,
      "fscale": 865,
      "vpblendd": 866,
      "pmin": 867,
      "##be": 868,
      "##32x": 869,
      "vbroadcastf128": 870,
      "##32x4": 871,
      "pblend": 872,
      "##pd2dq": 873,
      "popfq": 874,
      "popcnt": 875,
      "vpalignr": 876,
      "vmulss": 877,
      "pmaxu": 878,
      "cvttpd2dq": 879,
      "shufpd": 880,
      "##zcnt": 881,
      "aesdeclast": 882,
      "##rem": 883,
      "fucomp": 884,
      "cmpnl": 885,
      "fprem": 886,
      "pblendw": 887,
      "pcl": 888,
      "##nltps": 889,
      "##mulqdq": 890,
      "shrx": 891,
      "sets": 892,
      "seto": 893,
      "##dq2ps": 894,
      "vcvtps2dq": 895,
      "vcvtdq2ps": 896,
      "vcmpnltps": 897,
      "pclmulqdq": 898,
      "fcmovbe": 899,
      "##int": 900,
      "##vg": 901,
      "##ndint": 902,
      "pavg": 903,
      "frndint": 904,
      "pcmpgtw": 905,
      "##bsd": 906,
      "pabsd": 907,
      "minss": 908,
      "f2x": 909,
      "##m1": 910,
      "##extr": 911,
      "vpand": 912,
      "f2xm1": 913,
      "cmplt": 914,
      "##extrw": 915,
      "ft": 916,
      "fch": 917,
      "sy": 918,
      "pcmpist": 919,
      "pinsrb": 920,
      "fldl2": 921,
      "ftst": 922,
      "fchs": 923,
      "sys": 924,
      "pcmpistri": 925,
      "fy": 926,
      "pextrw": 927,
      "##l2x": 928,
      "vpt": 929,
      "btc": 930,
      "pandn": 931,
      "fyl2x": 932,
      "fldl2t": 933,
      "##i32x4": 934,
      "##g2": 935,
      "setns": 936,
      "scasw": 937,
      "##sqrt": 938,
      "vandps": 939,
      "fldlg2": 940,
      "fucompi": 941,
      "fe": 942,
      "pavgb": 943,
      "femms": 944,
      "tzcnt": 945,
      "vpmaddubsw": 946,
      "vprotq": 947,
      "vbroadcasti32x4": 948,
      "cmpnlesd": 949,
      "aes": 950,
      "vsub": 951,
      "##ey": 952,
      "##ass": 953,
      "##gen": 954,
      "##key": 955,
      "pmulh": 956,
      "aeskey": 957,
      "##assist": 958,
      "##genassist": 959,
      "aeskeygenassist": 960,
      "emms": 961,
      "jr": 962,
      "vsqrt": 963,
      "##xc": 964,
      "##sr": 965,
      "##mxc": 966,
      "movmsk": 967,
      "stmxc": 968,
      "divps": 969,
      "vmulsd": 970,
      "vpsrad": 971,
      "vpsllq": 972,
      "minps": 973,
      "vdivps": 974,
      "jrcxz": 975,
      "stmxcsr": 976,
      "##31": 977,
      "vmulpd": 978,
      "vfmadd231": 979,
      "maxps": 980,
      "addsub": 981,
      "shlx": 982,
      "maxss": 983,
      "vsubss": 984,
      "addsubpd": 985,
      "##ldup": 986,
      "vaddss": 987,
      "pminsw": 988,
      "##sldup": 989,
      "##gd": 990,
      "vmovsldup": 991,
      "syscall": 992,
      "vaddpd": 993,
      "movntdq": 994,
      "fnstenv": 995,
      "fucomi": 996,
      "sqrtsd": 997,
      "vdivss": 998,
      "pmaxuw": 999,
      "pmaxud": 1000,
      "##msub": 1001,
      "vmovapd": 1002,
      "vfmsub": 1003,
      "##132": 1004,
      "cmpltss": 1005,
      "##os": 1006,
      "setp": 1007,
      "fcomi": 1008,
      "fcos": 1009,
      "vpackuswb": 1010,
      "movmskps": 1011,
      "##uw": 1012,
      "pshufw": 1013,
      "vuc": 1014,
      "vblend": 1015,
      "##lo": 1016,
      "##nmadd": 1017,
      "##nlo": 1018,
      "##32": 1019,
      "vmovdqu32": 1020,
      "##ernlo": 1021,
      "vfnmadd": 1022,
      "vpternlo": 1023,
      "vpternlogd": 1024,
      "##vd": 1025,
      "##usdw": 1026,
      "##bd": 1027,
      "cmpltps": 1028,
      "##estri": 1029,
      "pcmpestri": 1030,
      "packusdw": 1031,
      "pmovzxbd": 1032,
      "fsubp": 1033,
      "vsqrtps": 1034,
      "vmovhlps": 1035,
      "fcompi": 1036,
      "sqrtps": 1037,
      "vfmadd231ps": 1038,
      "##132ss": 1039,
      "##rsw": 1040,
      "##213ps": 1041,
      "##ph": 1042,
      "##f32x4": 1043,
      "##hpd": 1044,
      "movhpd": 1045,
      "vpmovzx": 1046,
      "vpaddsw": 1047,
      "vbroadcastf32x4": 1048,
      "vpbroadcastb": 1049,
      "vaesdeclast": 1050,
      "vandnps": 1051,
      "vpcmpeqw": 1052,
      "sqrtpd": 1053,
      "vptest": 1054,
      "pmulhrsw": 1055,
      "vpmovzxbw": 1056,
      "##lhps": 1057,
      "vmovlhps": 1058,
      "##nta": 1059,
      "prefetchnta": 1060,
      "vcvtsd2ss": 1061,
      "pmulhuw": 1062,
      "vfmsub132ps": 1063,
      "lzcnt": 1064,
      "pt": 1065,
      "sfence": 1066,
      "##vps": 1067,
      "paddb": 1068,
      "psubq": 1069,
      "vcomiss": 1070,
      "vfnmadd132ss": 1071,
      "ptest": 1072,
      "vcmpgt": 1073,
      "cmpnle": 1074,
      "bz": 1075,
      "ff": 1076,
      "ldd": 1077,
      "wb": 1078,
      "xc": 1079,
      "##ry": 1080,
      "##pt": 1081,
      "##qu": 1082,
      "##hi": 1083,
      "addsubps": 1084,
      "##pss": 1085,
      "rcpss": 1086,
      "vpsadbw": 1087,
      "##invd": 1088,
      "vcvtss2sd": 1089,
      "cmpltsd": 1090,
      "vfmadd231pd": 1091,
      "vucomiss": 1092,
      "vblendps": 1093,
      "bzhi": 1094,
      "ffre": 1095,
      "lddqu": 1096,
      "wbinvd": 1097,
      "xcry": 1098,
      "xcrypt": 1099,
      "fsi": 1100,
      "pf": 1101,
      "fcmovne": 1102,
      "vextracti128": 1103,
      "vfmadd213": 1104,
      "movntq": 1105,
      "cmpnless": 1106,
      "fsin": 1107,
      "pfcmpeq": 1108,
      "mfence": 1109,
      "vor": 1110,
      "valign": 1111,
      "##ta": 1112,
      "##ata": 1113,
      "##ma": 1114,
      "vpma": 1115,
      "vaddsd": 1116,
      "vcvtph": 1117,
      "fpata": 1118,
      "vorps": 1119,
      "valignq": 1120,
      "vcvtph2ps": 1121,
      "fpatan": 1122,
      "##oq": 1123,
      "##_oq": 1124,
      "fcmove": 1125,
      "vucomisd": 1126,
      "vcmpgt_oq": 1127,
      "ffree": 1128,
      "vcmpgt_oqps": 1129,
      "kmov": 1130,
      "ph": 1131,
      "##csw": 1132,
      "##pps": 1133,
      "##pmc": 1134,
      "##gtb": 1135,
      "##addw": 1136,
      "##add213ps": 1137,
      "vpcmp": 1138,
      "rcpps": 1139,
      "vmovdqa64": 1140,
      "##sub213ps": 1141,
      "lar": 1142,
      "cvttps2dq": 1143,
      "pcmpgtb": 1144,
      "fdivrp": 1145,
      "vbroadcastsd": 1146,
      "vfmaddsub213ps": 1147,
      "rdpmc": 1148,
      "##gtd": 1149,
      "movnti": 1150,
      "pminub": 1151,
      "pavgw": 1152,
      "movmskpd": 1153,
      "vfmsubadd213ps": 1154,
      "vblendvps": 1155,
      "vpmacsw": 1156,
      "kmovq": 1157,
      "phaddw": 1158,
      "vpcmpgtd": 1159,
      "vpmacsww": 1160,
      "invd": 1161,
      "movq2dq": 1162,
      "psubusw": 1163,
      "pmaxub": 1164,
      "fcmovnbe": 1165,
      "xcryptc": 1166,
      "bl": 1167,
      "sgd": 1168,
      "##2q": 1169,
      "##no": 1170,
      "pushaw": 1171,
      "movdq2q": 1172,
      "vmovddup": 1173,
      "##ldx": 1174,
      "divpd": 1175,
      "cvtsd2si": 1176,
      "##ps2ph": 1177,
      "ud0": 1178,
      "bndldx": 1179,
      "vfmadd132": 1180,
      "vcomisd": 1181,
      "vcvtps2ph": 1182,
      "##endvps": 1183,
      "pminuw": 1184,
      "sysret": 1185,
      "vsqrtsd": 1186,
      "vsqrtss": 1187,
      "vfnmadd132ps": 1188,
      "vfmadd213sd": 1189,
      "blendvps": 1190,
      "sgdt": 1191,
      "vfmadd132sd": 1192,
      "mi": 1193,
      "##ter": 1194,
      "##pi": 1195,
      "##ud": 1196,
      "cmpl": 1197,
      "cmovno": 1198,
      "cvtss2si": 1199,
      "##enter": 1200,
      "maxpd": 1201,
      "fcmovnb": 1202,
      "pmovzxbw": 1203,
      "vcmpltps": 1204,
      "pminsd": 1205,
      "pminud": 1206,
      "fprem1": 1207,
      "sysenter": 1208,
      "vfmadd213pd": 1209,
      "minpd": 1210,
      "ls": 1211,
      "pi": 1212,
      "xsh": 1213,
      "##x2": 1214,
      "##tr": 1215,
      "##ti": 1216,
      "##vb": 1217,
      "##fb": 1218,
      "cmpeq": 1219,
      "andn": 1220,
      "cmovp": 1221,
      "psig": 1222,
      "psign": 1223,
      "str": 1224,
      "##idt": 1225,
      "pmuldq": 1226,
      "vxorpd": 1227,
      "vpbroadcastw": 1228,
      "vextracti": 1229,
      "##64x2": 1230,
      "prefetchw": 1231,
      "cvtpd2dq": 1232,
      "pblendvb": 1233,
      "movntdqa": 1234,
      "vcmpgtps": 1235,
      "lsl": 1236,
      "pi2": 1237,
      "xsha": 1238,
      "cmpeqps": 1239,
      "psignd": 1240,
      "psignw": 1241,
      "vextracti64x2": 1242,
      "ae": 1243,
      "fsqrt": 1244,
      "lldt": 1245,
      "lidt": 1246,
      "##eps": 1247,
      "##ts": 1248,
      "##fw": 1249,
      "##stx": 1250,
      "##ecb": 1251,
      "vmovupd": 1252,
      "notra": 1253,
      "clts": 1254,
      "##simc": 1255,
      "##msr": 1256,
      "ud1": 1257,
      "bndstx": 1258,
      "cvtps2pi": 1259,
      "fcmovb": 1260,
      "pinsrd": 1261,
      "fcompp": 1262,
      "vfmadd132ss": 1263,
      "vcmpps": 1264,
      "cmpltpd": 1265,
      "vsubsd": 1266,
      "ffreep": 1267,
      "xcryptecb": 1268,
      "xcryptctr": 1269,
      "cmpleps": 1270,
      "pi2fw": 1271,
      "aesimc": 1272,
      "notrack": 1273,
      "vm": 1274,
      "##ti32x4": 1275,
      "##25": 1276,
      "##sk": 1277,
      "##un": 1278,
      "##lpd": 1279,
      "##ofb": 1280,
      "##n2": 1281,
      "##mb": 1282,
      "##bc": 1283,
      "##dps": 1284,
      "insw": 1285,
      "##mps": 1286,
      "cmpsw": 1287,
      "cmpun": 1288,
      "##ordps": 1289,
      "##movd": 1290,
      "vpinsr": 1291,
      "vpblend": 1292,
      "vpextrw": 1293,
      "##si2ss": 1294,
      "vpermps": 1295,
      "rdmsr": 1296,
      "vinserti32x4": 1297,
      "vcvtpd2dq": 1298,
      "vcvtsi2ss": 1299,
      "vpermilpd": 1300,
      "vpcmpeqd": 1301,
      "cmpnlt": 1302,
      "fldln2": 1303,
      "sqrtss": 1304,
      "fldl2e": 1305,
      "cmpnlepd": 1306,
      "xcryptofb": 1307,
      "vpmask": 1308,
      "xcryptcfb": 1309,
      "xcryptcbc": 1310,
      "cmplesd": 1311,
      "xsha1": 1312,
      "xsha25": 1313,
      "cmpunordps": 1314,
      "vpinsrq": 1315,
      "vpblendmb": 1316,
      "vpmaskmovd": 1317,
      "xsha256": 1318,
      "fd": 1319,
      "get": 1320,
      "ltr": 1321,
      "pextr": 1322,
      "rsqrt": 1323,
      "sm": 1324,
      "sidt": 1325,
      "ver": 1326,
      "wr": 1327,
      "xre": 1328,
      "xstor": 1329,
      "##ea": 1330,
      "##em": 1331,
      "##trac": 1332,
      "##isi": 1333,
      "##16": 1334,
      "##sec": 1335,
      "##save": 1336,
      "##lea": 1337,
      "pushf": 1338,
      "movsldup": 1339,
      "setno": 1340,
      "##ote": 1341,
      "finc": 1342,
      "paddsb": 1343,
      "cmpxchg16": 1344,
      "fldpi": 1345,
      "cldem": 1346,
      "cvttps2": 1347,
      "psubb": 1348,
      "fnop": 1349,
      "fxtrac": 1350,
      "fxsave": 1351,
      "##axss": 1352,
      "##read": 1353,
      "fucompp": 1354,
      "pi2fd": 1355,
      "vmaxss": 1356,
      "vmread": 1357,
      "cmpnltsd": 1358,
      "cmpnltss": 1359,
      "fdisi": 1360,
      "getsec": 1361,
      "pextrd": 1362,
      "rsqrtps": 1363,
      "smsw": 1364,
      "verr": 1365,
      "wrmsr": 1366,
      "xrelea": 1367,
      "xstore": 1368,
      "fincstp": 1369,
      "cmpxchg16b": 1370,
      "cldemote": 1371,
      "cvttps2pi": 1372,
      "fxtract": 1373,
      "fdisi8087_nop": 1374,
      "xrelease": 1375
    }
  }
}