{
  "version": "1.0",
  "truncation": null,
  "padding": null,
  "added_tokens": [
    {
      "id": 0,
      "content": "<UNK>",
      "single_word": true,
      "lstrip": false,
      "rstrip": false,
      "normalized": false,
      "special": true
    },
    {
      "id": 1,
      "content": "<SEP>",
      "single_word": true,
      "lstrip": false,
      "rstrip": false,
      "normalized": false,
      "special": true
    },
    {
      "id": 2,
      "content": "<MASK>",
      "single_word": true,
      "lstrip": false,
      "rstrip": false,
      "normalized": false,
      "special": true
    },
    {
      "id": 3,
      "content": "<CLS>",
      "single_word": true,
      "lstrip": false,
      "rstrip": false,
      "normalized": false,
      "special": true
    },
    {
      "id": 4,
      "content": "<HEX>",
      "single_word": true,
      "lstrip": false,
      "rstrip": false,
      "normalized": false,
      "special": true
    },
    {
      "id": 5,
      "content": "<OFFSET>",
      "single_word": true,
      "lstrip": false,
      "rstrip": false,
      "normalized": false,
      "special": true
    }
  ],
  "normalizer": null,
  "pre_tokenizer": {
    "type": "Sequence",
    "pretokenizers": [
      {
        "type": "Split",
        "pattern": {
          "String": "<[^>]+>|\\[[^\\]]+\\]|\\w+"
        },
        "behavior": "Isolated",
        "invert": false
      },
      {
        "type": "Whitespace"
      }
    ]
  },
  "post_processor": null,
  "decoder": null,
  "model": {
    "type": "WordPiece",
    "unk_token": "<UNK>",
    "continuing_subword_prefix": "##",
    "max_input_chars_per_word": 100,
    "vocab": {
      "<UNK>": 0,
      "<SEP>": 1,
      "<MASK>": 2,
      "<CLS>": 3,
      "<HEX>": 4,
      "<OFFSET>": 5,
      "0": 6,
      "1": 7,
      "2": 8,
      "3": 9,
      "4": 10,
      "5": 11,
      "6": 12,
      "7": 13,
      "8": 14,
      "<": 15,
      ">": 16,
      "E": 17,
      "P": 18,
      "S": 19,
      "_": 20,
      "a": 21,
      "b": 22,
      "c": 23,
      "d": 24,
      "e": 25,
      "f": 26,
      "g": 27,
      "h": 28,
      "i": 29,
      "j": 30,
      "k": 31,
      "l": 32,
      "m": 33,
      "n": 34,
      "o": 35,
      "p": 36,
      "q": 37,
      "r": 38,
      "s": 39,
      "t": 40,
      "u": 41,
      "v": 42,
      "w": 43,
      "x": 44,
      "y": 45,
      "z": 46,
      "##s": 47,
      "##t": 48,
      "##r": 49,
      "##c": 50,
      "##x": 51,
      "##z": 52,
      "##n": 53,
      "##p": 54,
      "##k": 55,
      "##h": 56,
      "##d": 57,
      "##a": 58,
      "##i": 59,
      "##o": 60,
      "##u": 61,
      "##l": 62,
      "##q": 63,
      "##m": 64,
      "##e": 65,
      "##f": 66,
      "##2": 67,
      "##1": 68,
      "##3": 69,
      "##v": 70,
      "##w": 71,
      "##b": 72,
      "##g": 73,
      "##8": 74,
      "##0": 75,
      "##y": 76,
      "##6": 77,
      "##7": 78,
      "##_": 79,
      "##4": 80,
      "##5": 81,
      "##S": 82,
      "##E": 83,
      "##P": 84,
      "##>": 85,
      "##j": 86,
      "<S": 87,
      "##EP": 88,
      "<SEP": 89,
      "##ov": 90,
      "mov": 91,
      "in": 92,
      "int": 93,
      "int3": 94,
      "##sh": 95,
      "pu": 96,
      "push": 97,
      "##dd": 98,
      "add": 99,
      "##al": 100,
      "##all": 101,
      "call": 102,
      "##mp": 103,
      "##op": 104,
      "le": 105,
      "lea": 106,
      "pop": 107,
      "cmp": 108,
      "je": 109,
      "jmp": 110,
      "##st": 111,
      "##or": 112,
      "##est": 113,
      "test": 114,
      "xor": 115,
      "jn": 116,
      "jne": 117,
      "##et": 118,
      "ret": 119,
      "##ub": 120,
      "sub": 121,
      "nop": 122,
      "##nd": 123,
      "and": 124,
      "inc": 125,
      "##dq": 126,
      "##ps": 127,
      "##zx": 128,
      "movzx": 129,
      "jb": 130,
      "##sd": 131,
      "or": 132,
      "sh": 133,
      "ja": 134,
      "##ec": 135,
      "##dc": 136,
      "dec": 137,
      "adc": 138,
      "movdq": 139,
      "##ul": 140,
      "##mov": 141,
      "##mul": 142,
      "##add": 143,
      "imul": 144,
      "##sb": 145,
      "##ups": 146,
      "movups": 147,
      "movdqa": 148,
      "ou": 149,
      "out": 150,
      "vp": 151,
      "shl": 152,
      "js": 153,
      "movs": 154,
      "jae": 155,
      "##ck": 156,
      "shr": 157,
      "movsx": 158,
      "jl": 159,
      "mova": 160,
      "##xor": 161,
      "##addd": 162,
      "vmov": 163,
      "lo": 164,
      "##ld": 165,
      "jbe": 166,
      "vmovdq": 167,
      "sb": 168,
      "sbb": 169,
      "movsxd": 170,
      "cmov": 171,
      "movaps": 172,
      "cdq": 173,
      "pxor": 174,
      "jg": 175,
      "movsd": 176,
      "ps": 177,
      "##iv": 178,
      "outsd": 179,
      "paddd": 180,
      "##ch": 181,
      "##uf": 182,
      "vmovdqu": 183,
      "##chg": 184,
      "lock": 185,
      "##np": 186,
      "##shuf": 187,
      "st": 188,
      "##npck": 189,
      "jns": 190,
      "jle": 191,
      "popal": 192,
      "set": 193,
      "insb": 194,
      "movdqu": 195,
      "xchg": 196,
      "##div": 197,
      "outsb": 198,
      "##ne": 199,
      "idiv": 200,
      "sa": 201,
      "##rp": 202,
      "ro": 203,
      "rol": 204,
      "arp": 205,
      "arpl": 206,
      "xorps": 207,
      "sto": 208,
      "sar": 209,
      "pshuf": 210,
      "##rld": 211,
      "jge": 212,
      "##npckl": 213,
      "vpaddd": 214,
      "##lld": 215,
      "##ve": 216,
      "vpxor": 217,
      "jo": 218,
      "leave": 219,
      "mul": 220,
      "##bs": 221,
      "psrld": 222,
      "rc": 223,
      "movabs": 224,
      "pslld": 225,
      "insd": 226,
      "por": 227,
      "##pd": 228,
      "ne": 229,
      "neg": 230,
      "aa": 231,
      "##npckh": 232,
      "rcl": 233,
      "pshufb": 234,
      "stosd": 235,
      "movq": 236,
      "sete": 237,
      "vpu": 238,
      "vmovdqa": 239,
      "ror": 240,
      "punpckl": 241,
      "##ep": 242,
      "rep": 243,
      "setne": 244,
      "loop": 245,
      "##wd": 246,
      "bt": 247,
      "##ot": 248,
      "div": 249,
      "##qdq": 250,
      "##ss": 251,
      "##vt": 252,
      "cvt": 253,
      "xadd": 254,
      "cmove": 255,
      "vps": 256,
      "##ou": 257,
      "vpshuf": 258,
      "da": 259,
      "cmovne": 260,
      "##om": 261,
      "##sw": 262,
      "##stp": 263,
      "bou": 264,
      "bound": 265,
      "fi": 266,
      "lod": 267,
      "##er": 268,
      "fstp": 269,
      "not": 270,
      "stosb": 271,
      "cmova": 272,
      "cl": 273,
      "punpckh": 274,
      "mulsd": 275,
      "##omi": 276,
      "movsb": 277,
      "movss": 278,
      "movd": 279,
      "cmovb": 280,
      "vpunpckl": 281,
      "padd": 282,
      "vpunpckh": 283,
      "##bw": 284,
      "sc": 285,
      "sca": 286,
      "pushal": 287,
      "##si": 288,
      "vpshufd": 289,
      "loopne": 290,
      "##fd": 291,
      "addsd": 292,
      "retf": 293,
      "pshufd": 294,
      "##hf": 295,
      "vmova": 296,
      "das": 297,
      "vmovaps": 298,
      "##omisd": 299,
      "##sub": 300,
      "##xchg": 301,
      "cmpxchg": 302,
      "jp": 303,
      "clc": 304,
      "vpsrld": 305,
      "##28": 306,
      "##128": 307,
      "jno": 308,
      "sal": 309,
      "lodsd": 310,
      "##madd": 311,
      "##lt": 312,
      "aaa": 313,
      "jnp": 314,
      "daa": 315,
      "##en": 316,
      "fld": 317,
      "shld": 318,
      "aas": 319,
      "##it": 320,
      "hlt": 321,
      "wa": 322,
      "wait": 323,
      "cld": 324,
      "punpcklqdq": 325,
      "vpshufb": 326,
      "psr": 327,
      "cmpsb": 328,
      "vpslld": 329,
      "std": 330,
      "cmovg": 331,
      "subsd": 332,
      "##cx": 333,
      "##cxz": 334,
      "fc": 335,
      "sti": 336,
      "##rot": 337,
      "vprot": 338,
      "##la": 339,
      "jecxz": 340,
      "vprotd": 341,
      "comisd": 342,
      "movl": 343,
      "##lw": 344,
      "##enc": 345,
      "pa": 346,
      "vpor": 347,
      "##si2": 348,
      "cvtsi2": 349,
      "cmovae": 350,
      "int1": 351,
      "aam": 352,
      "cdqe": 353,
      "scasb": 354,
      "vper": 355,
      "vperm": 356,
      "movapd": 357,
      "stc": 358,
      "##nt": 359,
      "##i128": 360,
      "##mc": 361,
      "##tb": 362,
      "punpckldq": 363,
      "cmc": 364,
      "movlpd": 365,
      "xla": 366,
      "xlatb": 367,
      "paddw": 368,
      "popfd": 369,
      "##maddwd": 370,
      "cwd": 371,
      "cwde": 372,
      "vadd": 373,
      "sahf": 374,
      "cmovl": 375,
      "salc": 376,
      "##ns": 377,
      "##cmp": 378,
      "les": 379,
      "lodsb": 380,
      "##br": 381,
      "punpcklbw": 382,
      "##sd2": 383,
      "pushfd": 384,
      "vperm2": 385,
      "##call": 386,
      "lcall": 387,
      "scasd": 388,
      "la": 389,
      "loope": 390,
      "lahf": 391,
      "vpunpcklqdq": 392,
      "vpunpckhqdq": 393,
      "rcr": 394,
      "cvtt": 395,
      "##id": 396,
      "##es": 397,
      "cp": 398,
      "##uid": 399,
      "cpuid": 400,
      "vpunpckldq": 401,
      "vpunpckhdq": 402,
      "##ret": 403,
      "ent": 404,
      "enter": 405,
      "iret": 406,
      "iretd": 407,
      "lj": 408,
      "cli": 409,
      "ljmp": 410,
      "uc": 411,
      "psub": 412,
      "##esenc": 413,
      "##dq2": 414,
      "vshuf": 415,
      "vshufps": 416,
      "punpcklwd": 417,
      "divsd": 418,
      "into": 419,
      "pcmp": 420,
      "setb": 421,
      "cvtdq2": 422,
      "##ast": 423,
      "##adc": 424,
      "##oadc": 425,
      "##broadc": 426,
      "##broadcast": 427,
      "vmul": 428,
      "##ldq": 429,
      "cvtsi2sd": 430,
      "vaddps": 431,
      "##subps": 432,
      "cmpsd": 433,
      "##eq": 434,
      "stosw": 435,
      "va": 436,
      "##sd2si": 437,
      "cvttsd2si": 438,
      "vperm2i128": 439,
      "paddq": 440,
      "pmaddwd": 441,
      "aad": 442,
      "pmul": 443,
      "punpckhdq": 444,
      "punpckhqdq": 445,
      "vmulps": 446,
      "fdiv": 447,
      "##ds": 448,
      "punpckhwd": 449,
      "pcmpeq": 450,
      "mulss": 451,
      "##ad": 452,
      "##omiss": 453,
      "fn": 454,
      "fcom": 455,
      "fsub": 456,
      "btr": 457,
      "psubw": 458,
      "lds": 459,
      "fild": 460,
      "cvtdq2pd": 461,
      "cmovs": 462,
      "pack": 463,
      "ucomisd": 464,
      "setg": 465,
      "##f128": 466,
      "shrd": 467,
      "##ms": 468,
      "vsubps": 469,
      "bsw": 470,
      "##ap": 471,
      "bswap": 472,
      "pshuflw": 473,
      "shuf": 474,
      "##esd": 475,
      "vpadd": 476,
      "##ins": 477,
      "cmovge": 478,
      "fist": 479,
      "cmovbe": 480,
      "fnst": 481,
      "vbroadcast": 482,
      "bts": 483,
      "##esdec": 484,
      "shufps": 485,
      "##aw": 486,
      "##msk": 487,
      "##ig": 488,
      "##ign": 489,
      "##align": 490,
      "mulps": 491,
      "##alignr": 492,
      "##movmsk": 493,
      "##movmskb": 494,
      "##omp": 495,
      "psrldq": 496,
      "seta": 497,
      "vaesenc": 498,
      "psl": 499,
      "bs": 500,
      "palignr": 501,
      "punpckhbw": 502,
      "##sdw": 503,
      "aesenc": 504,
      "fadd": 505,
      "addss": 506,
      "##ssdw": 507,
      "vxor": 508,
      "vxorps": 509,
      "cvtsi2ss": 510,
      "cmovle": 511,
      "pand": 512,
      "pcmpeqb": 513,
      "##ps2": 514,
      "andps": 515,
      "pmovmskb": 516,
      "vmovups": 517,
      "##udq": 518,
      "pmuludq": 519,
      "ud": 520,
      "vpaddq": 521,
      "ud2": 522,
      "##hw": 523,
      "bnd": 524,
      "##hps": 525,
      "##ldt": 526,
      "fistp": 527,
      "fisub": 528,
      "sldt": 529,
      "fidiv": 530,
      "vpmaddwd": 531,
      "cvtps2": 532,
      "addps": 533,
      "fmul": 534,
      "##fenc": 535,
      "##fence": 536,
      "##tp": 537,
      "fisttp": 538,
      "fcmov": 539,
      "fic": 540,
      "fnstsw": 541,
      "divss": 542,
      "aesdec": 543,
      "##ra": 544,
      "psrad": 545,
      "lfence": 546,
      "ucomiss": 547,
      "##usw": 548,
      "##ex": 549,
      "fdivr": 550,
      "##ss2": 551,
      "pshufhw": 552,
      "setl": 553,
      "##insr": 554,
      "pinsr": 555,
      "vf": 556,
      "##tf128": 557,
      "cmovns": 558,
      "fx": 559,
      "vpbroadcast": 560,
      "fcomp": 561,
      "comiss": 562,
      "vpsr": 563,
      "xorpd": 564,
      "##lq": 565,
      "packssdw": 566,
      "##adbw": 567,
      "##upd": 568,
      "movupd": 569,
      "vz": 570,
      "##pp": 571,
      "##oupp": 572,
      "##eroupp": 573,
      "vzeroupp": 574,
      "vzeroupper": 575,
      "unpckl": 576,
      "##13": 577,
      "vpbroadcastd": 578,
      "psadbw": 579,
      "fiadd": 580,
      "##ax": 581,
      "pinsrw": 582,
      "vfmadd": 583,
      "##ext": 584,
      "bsf": 585,
      "fb": 586,
      "paddsw": 587,
      "fimul": 588,
      "cvtdq2ps": 589,
      "##in": 590,
      "outsw": 591,
      "subss": 592,
      "mulpd": 593,
      "psraw": 594,
      "cvtps2pd": 595,
      "rd": 596,
      "vins": 597,
      "vinser": 598,
      "vu": 599,
      "##ubsw": 600,
      "##maddubsw": 601,
      "##rac": 602,
      "vext": 603,
      "vextrac": 604,
      "##2ps": 605,
      "lodsw": 606,
      "##uswb": 607,
      "psrlw": 608,
      "##lps": 609,
      "pslldq": 610,
      "vbroadcasti128": 611,
      "vextractf128": 612,
      "vperm2f128": 613,
      "vbroadcastss": 614,
      "vpunpcklbw": 615,
      "packuswb": 616,
      "vaddsubps": 617,
      "fxch": 618,
      "##sd2ss": 619,
      "vmovss": 620,
      "##ss2sd": 621,
      "pmaddubsw": 622,
      "vmovsd": 623,
      "xg": 624,
      "##bv": 625,
      "##etbv": 626,
      "xgetbv": 627,
      "psubd": 628,
      "fst": 629,
      "fbld": 630,
      "movsw": 631,
      "vaesdec": 632,
      "ficom": 633,
      "cvtss2sd": 634,
      "vpunpcklwd": 635,
      "cvtsd2ss": 636,
      "vpunpckhwd": 637,
      "pm": 638,
      "##sc": 639,
      "##up": 640,
      "vmovd": 641,
      "bsr": 642,
      "##re": 643,
      "vpa": 644,
      "##cw": 645,
      "fnstcw": 646,
      "##last": 647,
      "setae": 648,
      "vmovhps": 649,
      "repz": 650,
      "psllw": 651,
      "fsubr": 652,
      "##64": 653,
      "popaw": 654,
      "andpd": 655,
      "vpaddw": 656,
      "##ubw": 657,
      "vpsubw": 658,
      "addpd": 659,
      "##ti128": 660,
      "##gt": 661,
      "pmullw": 662,
      "fcmovu": 663,
      "cq": 664,
      "vpsl": 665,
      "vpunpckhbw": 666,
      "fidivr": 667,
      "unpcklpd": 668,
      "cqo": 669,
      "end": 670,
      "##br64": 671,
      "endbr64": 672,
      "##ave": 673,
      "vmovq": 674,
      "fr": 675,
      "fns": 676,
      "fnsave": 677,
      "min": 678,
      "unpckh": 679,
      "vinserti128": 680,
      "pmax": 681,
      "vpack": 682,
      "vfmadd2": 683,
      "##nop": 684,
      "##80": 685,
      "##87": 686,
      "##_nop": 687,
      "##8087": 688,
      "##8087_nop": 689,
      "fen": 690,
      "##tsc": 691,
      "##i8087_nop": 692,
      "rdtsc": 693,
      "feni8087_nop": 694,
      "setbe": 695,
      "fl": 696,
      "##dcw": 697,
      "pcmpgt": 698,
      "fldcw": 699,
      "ficomp": 700,
      "vc": 701,
      "repne": 702,
      "pre": 703,
      "##fet": 704,
      "orps": 705,
      "psrlq": 706,
      "prefet": 707,
      "prefetch": 708,
      "fu": 709,
      "fuc": 710,
      "pcmpeqw": 711,
      "##132ps": 712,
      "vpackssdw": 713,
      "unpcklps": 714,
      "max": 715,
      "##13ps": 716,
      "fcmovn": 717,
      "fdivp": 718,
      "##sq": 719,
      "vcvt": 720,
      "##hlps": 721,
      "pcmpeqd": 722,
      "##stor": 723,
      "frstor": 724,
      "##cmpeq": 725,
      "vand": 726,
      "##ltps": 727,
      "fisubr": 728,
      "vunpckl": 729,
      "setnp": 730,
      "fcmovnu": 731,
      "##t0": 732,
      "##2x": 733,
      "vfmadd132ps": 734,
      "prefetcht0": 735,
      "vpermi": 736,
      "fa": 737,
      "##bl": 738,
      "cvtps2dq": 739,
      "vfmadd213ps": 740,
      "fabs": 741,
      "vpermilps": 742,
      "##ss2si": 743,
      "vpcmpeq": 744,
      "vunpckh": 745,
      "movhlps": 746,
      "setge": 747,
      "movsq": 748,
      "cvttss2si": 749,
      "setle": 750,
      "pcmpgtd": 751,
      "movhps": 752,
      "##ddup": 753,
      "pmaxsw": 754,
      "subps": 755,
      "movnt": 756,
      "cvtpd": 757,
      "cmpn": 758,
      "##se": 759,
      "pmulld": 760,
      "##use": 761,
      "movddup": 762,
      "##movzx": 763,
      "pause": 764,
      "cvtpd2ps": 765,
      "##fq": 766,
      "vpxord": 767,
      "##env": 768,
      "vpsraw": 769,
      "##nps": 770,
      "stosq": 771,
      "vpcmpeqb": 772,
      "##cl": 773,
      "fmulp": 774,
      "minsd": 775,
      "##am": 776,
      "##8b": 777,
      "cmpxchg8b": 778,
      "fxam": 779,
      "##rand": 780,
      "rdrand": 781,
      "vinsertf128": 782,
      "rds": 783,
      "##ed": 784,
      "##eed": 785,
      "rdseed": 786,
      "##cnt": 787,
      "vpmovmskb": 788,
      "##rt": 789,
      "pmovzx": 790,
      "paddusw": 791,
      "movlhps": 792,
      "andnps": 793,
      "repe": 794,
      "orpd": 795,
      "vpsrlq": 796,
      "unpckhpd": 797,
      "vpslldq": 798,
      "unpckhps": 799,
      "##bsw": 800,
      "pabsw": 801,
      "vandpd": 802,
      "fldenv": 803,
      "fucom": 804,
      "maxsd": 805,
      "##end": 806,
      "vunpcklpd": 807,
      "##dup": 808,
      "##shdup": 809,
      "vmovshdup": 810,
      "fldl": 811,
      "psubsw": 812,
      "vpermq": 813,
      "cbw": 814,
      "##blend": 815,
      "vaesenclast": 816,
      "##ist": 817,
      "pmulhw": 818,
      "##nc": 819,
      "cmovo": 820,
      "fbstp": 821,
      "pmovzxwd": 822,
      "fstpnc": 823,
      "movntps": 824,
      "fstpnce": 825,
      "vcmp": 826,
      "psllq": 827,
      "aesenclast": 828,
      "##wb": 829,
      "vmovdqu8": 830,
      "##sswb": 831,
      "packsswb": 832,
      "vunpckhpd": 833,
      "##mms": 834,
      "movlps": 835,
      "vpsrlw": 836,
      "vpsllw": 837,
      "faddp": 838,
      "cmpnltps": 839,
      "##2dq": 840,
      "sq": 841,
      "##npd": 842,
      "sqrt": 843,
      "pushfq": 844,
      "subpd": 845,
      "##ri": 846,
      "fncl": 847,
      "fnclex": 848,
      "fp": 849,
      "fld1": 850,
      "vdiv": 851,
      "andnpd": 852,
      "fsubrp": 853,
      "vunpcklps": 854,
      "vunpckhps": 855,
      "fnin": 856,
      "vpsrldq": 857,
      "fninit": 858,
      "fsc": 859,
      "##ale": 860,
      "vpbl": 861,
      "##endd": 862,
      "fldz": 863,
      "##ps2dq": 864,
      "fscale": 865,
      "vpblendd": 866,
      "pmin": 867,
      "##32x": 868,
      "##be": 869,
      "vbroadcastf128": 870,
      "##32x4": 871,
      "pblend": 872,
      "##pd2dq": 873,
      "popfq": 874,
      "popcnt": 875,
      "vpalignr": 876,
      "vmulss": 877,
      "pmaxu": 878,
      "cvttpd2dq": 879,
      "shufpd": 880,
      "##zcnt": 881,
      "aesdeclast": 882,
      "##rem": 883,
      "fucomp": 884,
      "cmpnl": 885,
      "fprem": 886,
      "pblendw": 887,
      "pcl": 888,
      "##nltps": 889,
      "##mulqdq": 890,
      "shrx": 891,
      "sets": 892,
      "seto": 893,
      "##dq2ps": 894,
      "vcvtps2dq": 895,
      "vcvtdq2ps": 896,
      "vcmpnltps": 897,
      "pclmulqdq": 898,
      "fcmovbe": 899,
      "##int": 900,
      "##vg": 901,
      "##ndint": 902,
      "pavg": 903,
      "frndint": 904,
      "pcmpgtw": 905,
      "##bsd": 906,
      "pabsd": 907,
      "minss": 908,
      "f2x": 909,
      "##m1": 910,
      "##extr": 911,
      "vpand": 912,
      "f2xm1": 913,
      "cmplt": 914,
      "##extrw": 915,
      "ft": 916,
      "fch": 917,
      "sy": 918,
      "pcmpist": 919,
      "pinsrb": 920,
      "fldl2": 921,
      "ftst": 922,
      "fchs": 923,
      "sys": 924,
      "pcmpistri": 925,
      "fy": 926,
      "pextrw": 927,
      "##l2x": 928,
      "vpt": 929,
      "btc": 930,
      "pandn": 931,
      "fyl2x": 932,
      "fldl2t": 933,
      "##i32x4": 934,
      "##g2": 935,
      "setns": 936,
      "scasw": 937,
      "##sqrt": 938,
      "vandps": 939,
      "fldlg2": 940,
      "fucompi": 941,
      "fe": 942,
      "pavgb": 943,
      "femms": 944,
      "tzcnt": 945,
      "vpmaddubsw": 946,
      "vprotq": 947,
      "vbroadcasti32x4": 948,
      "cmpnlesd": 949,
      "aes": 950,
      "vsub": 951,
      "##ke": 952,
      "##ass": 953,
      "##gen": 954,
      "##ygen": 955,
      "pmulh": 956,
      "aeske": 957,
      "##assist": 958,
      "##ygenassist": 959,
      "aeskeygenassist": 960,
      "emms": 961,
      "jr": 962,
      "vsqrt": 963,
      "##sr": 964,
      "##csr": 965,
      "##xcsr": 966,
      "##mxcsr": 967,
      "movmsk": 968,
      "stmxcsr": 969,
      "divps": 970,
      "vmulsd": 971,
      "vpsrad": 972,
      "vpsllq": 973,
      "minps": 974,
      "vdivps": 975,
      "jrcxz": 976,
      "##31": 977,
      "vmulpd": 978,
      "vfmadd231": 979,
      "maxps": 980,
      "addsub": 981,
      "shlx": 982,
      "maxss": 983,
      "vsubss": 984,
      "addsubpd": 985,
      "##ldup": 986,
      "vaddss": 987,
      "pminsw": 988,
      "##sldup": 989,
      "##gd": 990,
      "vmovsldup": 991,
      "syscall": 992,
      "vaddpd": 993,
      "movntdq": 994,
      "fnstenv": 995,
      "fucomi": 996,
      "sqrtsd": 997,
      "vdivss": 998,
      "pmaxud": 999
    }
  }
}