{
  "version": "1.0",
  "truncation": null,
  "padding": null,
  "added_tokens": [
    {
      "id": 0,
      "content": "<UNK>",
      "single_word": true,
      "lstrip": false,
      "rstrip": false,
      "normalized": false,
      "special": true
    },
    {
      "id": 1,
      "content": "<SEP>",
      "single_word": true,
      "lstrip": false,
      "rstrip": false,
      "normalized": false,
      "special": true
    },
    {
      "id": 2,
      "content": "<MASK>",
      "single_word": true,
      "lstrip": false,
      "rstrip": false,
      "normalized": false,
      "special": true
    },
    {
      "id": 3,
      "content": "<CLS>",
      "single_word": true,
      "lstrip": false,
      "rstrip": false,
      "normalized": false,
      "special": true
    },
    {
      "id": 4,
      "content": "<HEX>",
      "single_word": true,
      "lstrip": false,
      "rstrip": false,
      "normalized": false,
      "special": true
    },
    {
      "id": 5,
      "content": "<OFFSET>",
      "single_word": true,
      "lstrip": false,
      "rstrip": false,
      "normalized": false,
      "special": true
    }
  ],
  "normalizer": null,
  "pre_tokenizer": {
    "type": "Sequence",
    "pretokenizers": [
      {
        "type": "Split",
        "pattern": {
          "String": "<[^>]+>|\\[[^\\]]+\\]|\\w+"
        },
        "behavior": "Isolated",
        "invert": false
      },
      {
        "type": "Whitespace"
      }
    ]
  },
  "post_processor": null,
  "decoder": null,
  "model": {
    "type": "WordPiece",
    "unk_token": "<UNK>",
    "continuing_subword_prefix": "##",
    "max_input_chars_per_word": 100,
    "vocab": {
      "<UNK>": 0,
      "<SEP>": 1,
      "<MASK>": 2,
      "<CLS>": 3,
      "<HEX>": 4,
      "<OFFSET>": 5,
      "0": 6,
      "1": 7,
      "2": 8,
      "3": 9,
      "4": 10,
      "5": 11,
      "6": 12,
      "7": 13,
      "8": 14,
      "<": 15,
      ">": 16,
      "E": 17,
      "P": 18,
      "S": 19,
      "_": 20,
      "a": 21,
      "b": 22,
      "c": 23,
      "d": 24,
      "e": 25,
      "f": 26,
      "g": 27,
      "h": 28,
      "i": 29,
      "j": 30,
      "k": 31,
      "l": 32,
      "m": 33,
      "n": 34,
      "o": 35,
      "p": 36,
      "q": 37,
      "r": 38,
      "s": 39,
      "t": 40,
      "u": 41,
      "v": 42,
      "w": 43,
      "x": 44,
      "y": 45,
      "z": 46,
      "##b": 47,
      "##r": 48,
      "##o": 49,
      "##a": 50,
      "##d": 51,
      "##c": 52,
      "##s": 53,
      "##t": 54,
      "##f": 55,
      "##3": 56,
      "##2": 57,
      "##x": 58,
      "##4": 59,
      "##p": 60,
      "##h": 61,
      "##u": 62,
      "##l": 63,
      "##v": 64,
      "##m": 65,
      "##e": 66,
      "##q": 67,
      "##i": 68,
      "##n": 69,
      "##g": 70,
      "##8": 71,
      "##k": 72,
      "##1": 73,
      "##w": 74,
      "##z": 75,
      "##S": 76,
      "##E": 77,
      "##P": 78,
      "##>": 79,
      "##y": 80,
      "##0": 81,
      "##7": 82,
      "##_": 83,
      "##6": 84,
      "##j": 85,
      "##5": 86,
      "<S": 87,
      "##EP": 88,
      "<SEP": 89,
      "##ov": 90,
      "mov": 91,
      "in": 92,
      "int": 93,
      "int3": 94,
      "##sh": 95,
      "pu": 96,
      "push": 97,
      "##al": 98,
      "##all": 99,
      "call": 100,
      "ad": 101,
      "##mp": 102,
      "add": 103,
      "le": 104,
      "lea": 105,
      "##op": 106,
      "cmp": 107,
      "pop": 108,
      "je": 109,
      "##st": 110,
      "##est": 111,
      "test": 112,
      "jmp": 113,
      "##or": 114,
      "xor": 115,
      "jn": 116,
      "jne": 117,
      "##ub": 118,
      "##et": 119,
      "sub": 120,
      "ret": 121,
      "nop": 122,
      "##nd": 123,
      "and": 124,
      "sh": 125,
      "##ps": 126,
      "inc": 127,
      "##zx": 128,
      "movzx": 129,
      "or": 130,
      "##dq": 131,
      "jb": 132,
      "##ul": 133,
      "adc": 134,
      "##sd": 135,
      "##mul": 136,
      "ja": 137,
      "shl": 138,
      "imul": 139,
      "##ec": 140,
      "shr": 141,
      "dec": 142,
      "movu": 143,
      "movups": 144,
      "##mov": 145,
      "movs": 146,
      "##dd": 147,
      "movdq": 148,
      "movsx": 149,
      "mova": 150,
      "jae": 151,
      "jl": 152,
      "##ck": 153,
      "##add": 154,
      "cdq": 155,
      "lo": 156,
      "##sb": 157,
      "jbe": 158,
      "cmov": 159,
      "ou": 160,
      "out": 161,
      "movdqa": 162,
      "jg": 163,
      "movaps": 164,
      "sb": 165,
      "sbb": 166,
      "movsxd": 167,
      "movsd": 168,
      "sa": 169,
      "vp": 170,
      "js": 171,
      "sar": 172,
      "##iv": 173,
      "##ch": 174,
      "vmov": 175,
      "##chg": 176,
      "jle": 177,
      "lock": 178,
      "st": 179,
      "xchg": 180,
      "set": 181,
      "##xor": 182,
      "##ld": 183,
      "mul": 184,
      "##ne": 185,
      "jns": 186,
      "##div": 187,
      "xorps": 188,
      "movdqu": 189,
      "##np": 190,
      "##npck": 191,
      "idiv": 192,
      "vmovdq": 193,
      "ro": 194,
      "rol": 195,
      "##addd": 196,
      "ps": 197,
      "sto": 198,
      "outsd": 199,
      "jge": 200,
      "##uf": 201,
      "pxor": 202,
      "##eg": 203,
      "neg": 204,
      "##shuf": 205,
      "popal": 206,
      "insb": 207,
      "##ve": 208,
      "##bs": 209,
      "leave": 210,
      "movq": 211,
      "movabs": 212,
      "vmovdqu": 213,
      "outsb": 214,
      "punpck": 215,
      "paddd": 216,
      "##pd": 217,
      "##ot": 218,
      "##rp": 219,
      "arp": 220,
      "arpl": 221,
      "ror": 222,
      "not": 223,
      "cmove": 224,
      "shld": 225,
      "xadd": 226,
      "aa": 227,
      "sete": 228,
      "##vt": 229,
      "cvt": 230,
      "##wd": 231,
      "psr": 232,
      "##stp": 233,
      "##ss": 234,
      "stosd": 235,
      "punpckl": 236,
      "bt": 237,
      "cmova": 238,
      "pshuf": 239,
      "jo": 240,
      "fstp": 241,
      "setne": 242,
      "mulsd": 243,
      "loop": 244,
      "div": 245,
      "cmovne": 246,
      "##ep": 247,
      "movd": 248,
      "rep": 249,
      "##er": 250,
      "insd": 251,
      "##om": 252,
      "rc": 253,
      "##sw": 254,
      "vmova": 255,
      "vmovaps": 256,
      "fi": 257,
      "lod": 258,
      "da": 259,
      "##ca": 260,
      "vpxor": 261,
      "stosb": 262,
      "##ou": 263,
      "addsd": 264,
      "##omi": 265,
      "vpaddd": 266,
      "movss": 267,
      "cmovb": 268,
      "##si": 269,
      "fld": 270,
      "##unpck": 271,
      "cl": 272,
      "psl": 273,
      "vps": 274,
      "##sub": 275,
      "vmovdqa": 276,
      "vpunpck": 277,
      "sca": 278,
      "rcl": 279,
      "por": 280,
      "##ad": 281,
      "##addw": 282,
      "##ound": 283,
      "bound": 284,
      "##bw": 285,
      "##omisd": 286,
      "##hf": 287,
      "##fd": 288,
      "psrld": 289,
      "cmovae": 290,
      "retf": 291,
      "pushal": 292,
      "##qdq": 293,
      "shrd": 294,
      "##ldq": 295,
      "subsd": 296,
      "##nt": 297,
      "jp": 298,
      "##en": 299,
      "pslld": 300,
      "movsb": 301,
      "loopne": 302,
      "pshufd": 303,
      "sal": 304,
      "pa": 305,
      "##cmp": 306,
      "pshufb": 307,
      "punpckh": 308,
      "cld": 309,
      "paddw": 310,
      "das": 311,
      "lodsd": 312,
      "##enc": 313,
      "jnp": 314,
      "vpsr": 315,
      "vshuf": 316,
      "##la": 317,
      "vshufps": 318,
      "sti": 319,
      "comisd": 320,
      "##lw": 321,
      "vadd": 322,
      "##it": 323,
      "movapd": 324,
      "std": 325,
      "##madd": 326,
      "wa": 327,
      "wait": 328,
      "clc": 329,
      "daa": 330,
      "##lt": 331,
      "vpshuf": 332,
      "##si2": 333,
      "cvtsi2": 334,
      "lodsb": 335,
      "##tb": 336,
      "##lpd": 337,
      "aas": 338,
      "##28": 339,
      "##128": 340,
      "cvtt": 341,
      "pcmp": 342,
      "xla": 343,
      "xlatb": 344,
      "hlt": 345,
      "scasb": 346,
      "##eq": 347,
      "jno": 348,
      "cdqe": 349,
      "##2si": 350,
      "stc": 351,
      "vaddps": 352,
      "aaa": 353,
      "int1": 354,
      "cwd": 355,
      "cmpsb": 356,
      "cwde": 357,
      "##erm": 358,
      "cli": 359,
      "sahf": 360,
      "vperm": 361,
      "fc": 362,
      "pushfd": 363,
      "##es": 364,
      "cmovg": 365,
      "psub": 366,
      "##cx": 367,
      "##cxz": 368,
      "salc": 369,
      "##subps": 370,
      "jecxz": 371,
      "vpunpckh": 372,
      "cmpsd": 373,
      "aam": 374,
      "punpckldq": 375,
      "lj": 376,
      "ljmp": 377,
      "##esenc": 378,
      "##ns": 379,
      "##mc": 380,
      "##xchg": 381,
      "cmpxchg": 382,
      "aad": 383,
      "##nter": 384,
      "enter": 385,
      "vmul": 386,
      "punpcklbw": 387,
      "cmc": 388,
      "movlpd": 389,
      "##dq2": 390,
      "scasd": 391,
      "loope": 392,
      "##ret": 393,
      "into": 394,
      "cmovl": 395,
      "cvtdq2": 396,
      "iret": 397,
      "iretd": 398,
      "la": 399,
      "vsubps": 400,
      "popfd": 401,
      "cvtsi2sd": 402,
      "rcr": 403,
      "##maddwd": 404,
      "punpcklwd": 405,
      "lahf": 406,
      "pcmpeq": 407,
      "uc": 408,
      "vmulps": 409,
      "punpcklqdq": 410,
      "va": 411,
      "pmul": 412,
      "psrldq": 413,
      "divsd": 414,
      "##call": 415,
      "vpunpckl": 416,
      "lcall": 417,
      "setb": 418,
      "vpsrld": 419,
      "bsw": 420,
      "##ap": 421,
      "bswap": 422,
      "##sd2si": 423,
      "setg": 424,
      "cvttsd2si": 425,
      "##esd": 426,
      "##ms": 427,
      "vpsl": 428,
      "pand": 429,
      "mulss": 430,
      "##esdec": 431,
      "bts": 432,
      "##addq": 433,
      "##br": 434,
      "vpshufd": 435,
      "les": 436,
      "fdiv": 437,
      "stosw": 438,
      "ucomisd": 439,
      "fn": 440,
      "ud": 441,
      "##msk": 442,
      "ld": 443,
      "##i128": 444,
      "cvtdq2pd": 445,
      "##omp": 446,
      "##ig": 447,
      "##ign": 448,
      "vperm2": 449,
      "##align": 450,
      "aesenc": 451,
      "##movmsk": 452,
      "##movmskb": 453,
      "##alignr": 454,
      "lds": 455,
      "fadd": 456,
      "bs": 457,
      "##id": 458,
      "pack": 459,
      "vpaddw": 460,
      "fnst": 461,
      "##oad": 462,
      "##cast": 463,
      "##broad": 464,
      "##broadcast": 465,
      "cp": 466,
      "##uid": 467,
      "cpuid": 468,
      "ud2": 469,
      "pmaddwd": 470,
      "fild": 471,
      "punpckhwd": 472,
      "psubw": 473,
      "vpshufb": 474,
      "palignr": 475,
      "shuf": 476,
      "fsub": 477,
      "##f128": 478,
      "vpor": 479,
      "vpslld": 480,
      "btr": 481,
      "##32": 482,
      "cmovs": 483,
      "pcmpeqb": 484,
      "shufps": 485,
      "seta": 486,
      "##usw": 487,
      "vpa": 488,
      "##aw": 489,
      "vz": 490,
      "vzer": 491,
      "vxor": 492,
      "vxorps": 493,
      "##pp": 494,
      "##oupp": 495,
      "vzeroupp": 496,
      "vzeroupper": 497,
      "##ins": 498,
      "pmovmskb": 499,
      "cmovbe": 500,
      "##64": 501,
      "addss": 502,
      "##omiss": 503,
      "##uswb": 504,
      "psrad": 505,
      "vaesdec": 506,
      "##udq": 507,
      "fmul": 508,
      "fist": 509,
      "paddq": 510,
      "fiadd": 511,
      "pslldq": 512,
      "vf": 513,
      "##ex": 514,
      "cmovle": 515,
      "vbroadcast": 516,
      "##lq": 517,
      "##ntdq": 518,
      "##fenc": 519,
      "##fence": 520,
      "cmovge": 521,
      "vperm2i128": 522,
      "vpr": 523,
      "vaesenc": 524,
      "##ra": 525,
      "unpck": 526,
      "vprot": 527,
      "##ss2si": 528,
      "pmuludq": 529,
      "cvttss2si": 530,
      "fcomp": 531,
      "vprotd": 532,
      "##ext": 533,
      "##lps": 534,
      "cmovns": 535,
      "##21": 536,
      "##213": 537,
      "pshuflw": 538,
      "##213ps": 539,
      "##sdw": 540,
      "punpckhbw": 541,
      "vpunpckldq": 542,
      "cvtsi2ss": 543,
      "punpckhdq": 544,
      "rorx": 545,
      "##cw": 546,
      "fcom": 547,
      "fisub": 548,
      "fnstsw": 549,
      "vpcmp": 550,
      "packuswb": 551,
      "##ssdw": 552,
      "vpmaddwd": 553,
      "vpunpckhdq": 554,
      "vmovdqu64": 555,
      "vpunpcklqdq": 556,
      "##insr": 557,
      "##hw": 558,
      "##hps": 559,
      "fic": 560,
      "##ct": 561,
      "bsr": 562,
      "##ract": 563,
      "vext": 564,
      "vextract": 565,
      "andps": 566,
      "psraw": 567,
      "movupd": 568,
      "fidiv": 569,
      "##ps2": 570,
      "vpunpckhqdq": 571,
      "bnd": 572,
      "bsf": 573,
      "fx": 574,
      "aesdec": 575,
      "vmovu": 576,
      "vpack": 577,
      "##tp": 578,
      "fisttp": 579,
      "##in": 580,
      "cvtdq2ps": 581,
      "##ax": 582,
      "vpaddq": 583,
      "psrlw": 584,
      "psubd": 585,
      "fcmov": 586,
      "vmovups": 587,
      "vpunpcklbw": 588,
      "punpckhqdq": 589,
      "vpcmpeq": 590,
      "cvtps2": 591,
      "pmullw": 592,
      "pinsr": 593,
      "mulps": 594,
      "fdivr": 595,
      "vpunpcklwd": 596,
      "vfmadd": 597,
      "vmovdqu32": 598,
      "setl": 599,
      "vmovntdq": 600,
      "vpmul": 601,
      "lfence": 602,
      "subss": 603,
      "vpunpckhwd": 604,
      "vperm2f128": 605,
      "vextractf128": 606,
      "fxch": 607,
      "xorpd": 608,
      "divss": 609,
      "vmovd": 610,
      "andpd": 611,
      "comiss": 612,
      "fst": 613,
      "##re": 614,
      "##ldt": 615,
      "padd": 616,
      "##env": 617,
      "pinsrw": 618,
      "sldt": 619,
      "##adbw": 620,
      "vpand": 621,
      "fsubr": 622,
      "pcmpeqw": 623,
      "ucomiss": 624,
      "fistp": 625,
      "##up": 626,
      "cvtps2pd": 627,
      "##last": 628,
      "psrlq": 629,
      "addps": 630,
      "fb": 631,
      "packssdw": 632,
      "##neq": 633,
      "mulpd": 634,
      "vpunpckhbw": 635,
      "##ss2": 636,
      "##ss2sd": 637,
      "fnstcw": 638,
      "##gt": 639,
      "pm": 640,
      "cvtss2sd": 641,
      "rd": 642,
      "vins": 643,
      "##ert": 644,
      "vinsert": 645,
      "##x4": 646,
      "##32x4": 647,
      "fimul": 648,
      "unpcklpd": 649,
      "##sd2": 650,
      "##sd2ss": 651,
      "ficomp": 652,
      "vpermb": 653,
      "##i32x4": 654,
      "setbe": 655,
      "cvtsd2ss": 656,
      "vunpck": 657,
      "vpbroadcast": 658,
      "fisubr": 659,
      "##cl": 660,
      "##hpd": 661,
      "vpsrlw": 662,
      "fidivr": 663,
      "pcmpgt": 664,
      "psadbw": 665,
      "##msub": 666,
      "movnt": 667,
      "vfmsub": 668,
      "psllw": 669,
      "##add213ps": 670,
      "##sub213ps": 671,
      "vfmaddsub213ps": 672,
      "vfmsubadd213ps": 673,
      "fdivp": 674,
      "setae": 675,
      "movsw": 676,
      "cq": 677,
      "cqo": 678,
      "movntdq": 679,
      "vbroadcastss": 680,
      "vmovss": 681,
      "vpsub": 682,
      "vaddsubps": 683,
      "pcmpeqd": 684,
      "addpd": 685,
      "fldcw": 686,
      "sfence": 687,
      "##ubsw": 688,
      "##maddubsw": 689,
      "vbroadcasti32x4": 690,
      "##vg": 691,
      "vg": 692,
      "##le": 693,
      "outsw": 694,
      "min": 695,
      "fldenv": 696,
      "vmovq": 697,
      "##hlps": 698,
      "pre": 699,
      "##fet": 700,
      "prefet": 701,
      "prefetch": 702,
      "##af": 703,
      "##f2": 704,
      "##fi": 705,
      "##p8": 706,
      "##neqb": 707,
      "vgf2": 708,
      "##affi": 709,
      "##p8affi": 710,
      "vgf2p8affi": 711,
      "vgf2p8affineqb": 712,
      "vpmovmskb": 713,
      "pavg": 714,
      "vpermq": 715,
      "pshufhw": 716,
      "##movzx": 717,
      "##usb": 718,
      "##ist": 719,
      "##ave": 720,
      "vpackuswb": 721,
      "vpbroadcastd": 722,
      "movhlps": 723,
      "fbld": 724,
      "##uc": 725,
      "ficom": 726,
      "##sc": 727,
      "vpermi": 728,
      "fns": 729,
      "fnsave": 730,
      "##dup": 731,
      "##shdup": 732,
      "vmovshdup": 733,
      "fr": 734,
      "pmaddubsw": 735,
      "setge": 736,
      "fldz": 737,
      "max": 738,
      "fuc": 739,
      "repz": 740,
      "sha": 741,
      "vpsrldq": 742,
      "vpackssdw": 743,
      "pandn": 744,
      "##mulqdq": 745,
      "##clmulqdq": 746,
      "##lend": 747,
      "pmax": 748,
      "##blend": 749,
      "xg": 750,
      "##bv": 751,
      "##etbv": 752,
      "##pd2": 753,
      "vpsrad": 754,
      "xgetbv": 755,
      "kmov": 756,
      "##ri": 757,
      "end": 758,
      "##br64": 759,
      "endbr64": 760,
      "movhps": 761,
      "andn": 762,
      "vinserti128": 763,
      "vmovdqu8": 764,
      "vpsubw": 765,
      "vpsraw": 766,
      "pmulhw": 767,
      "vmovsd": 768,
      "vpcmpeqb": 769,
      "orps": 770,
      "lodsw": 771,
      "##sq": 772,
      "pavgb": 773,
      "##tsc": 774,
      "rdtsc": 775,
      "psllq": 776,
      "vpslldq": 777,
      "paddsw": 778,
      "fcmovn": 779,
      "repne": 780,
      "subps": 781,
      "repe": 782,
      "psubq": 783,
      "##stor": 784,
      "##cnt": 785,
      "pcmpgtd": 786,
      "minsd": 787,
      "movntps": 788,
      "orpd": 789,
      "frstor": 790,
      "setle": 791,
      "##cs": 792,
      "vc": 793,
      "##xcs": 794,
      "##mxcs": 795,
      "##mxcsr": 796,
      "popaw": 797,
      "fld1": 798,
      "fcmovu": 799,
      "fmulp": 800,
      "seto": 801,
      "vbroadcasti128": 802,
      "pcmpist": 803,
      "pcmpistri": 804,
      "##test": 805,
      "##se": 806,
      "stosq": 807,
      "vpmovzx": 808,
      "##rt": 809,
      "fch": 810,
      "unpcklps": 811,
      "fchs": 812,
      "cvtpd2": 813,
      "unpckhpd": 814,
      "##be": 815,
      "vpsllw": 816,
      "cvtpd2ps": 817,
      "vpsrlq": 818,
      "##npd": 819,
      "##lhps": 820,
      "fnstenv": 821,
      "vpcmpeqw": 822,
      "vunpcklpd": 823,
      "cmpn": 824,
      "vpblend": 825,
      "vmovhps": 826,
      "subpd": 827,
      "psubusb": 828,
      "vpmuludq": 829,
      "##fq": 830,
      "vpalignr": 831,
      "ud0": 832,
      "movlhps": 833,
      "vcvt": 834,
      "##os": 835,
      "vunpckhpd": 836,
      "##25": 837,
      "##256": 838,
      "cmovo": 839,
      "vpmulhw": 840,
      "pcmpgtw": 841,
      "sha256": 842,
      "movsq": 843,
      "aesenclast": 844,
      "sq": 845,
      "sqrt": 846,
      "pclmulqdq": 847,
      "##nc": 848,
      "maxsd": 849,
      "pmin": 850,
      "vinsertf128": 851,
      "vpermi2": 852,
      "fbstp": 853,
      "fucomp": 854,
      "vpm": 855,
      "vpermi2b": 856,
      "bz": 857,
      "##hi": 858,
      "##wb": 859,
      "##sswb": 860,
      "pmaxsw": 861,
      "bzhi": 862,
      "setnp": 863,
      "##ddup": 864,
      "stmxcsr": 865,
      "kmovd": 866,
      "ff": 867,
      "##zcnt": 868,
      "movlps": 869,
      "vpermilps": 870,
      "ffre": 871,
      "andnpd": 872,
      "##mms": 873,
      "vpxord": 874,
      "vpcmpeqd": 875,
      "fa": 876,
      "fsubp": 877,
      "fabs": 878,
      "movddup": 879,
      "vpxorq": 880,
      "fcos": 881,
      "movnti": 882,
      "shrx": 883,
      "##nta": 884,
      "prefetchnta": 885,
      "##uw": 886,
      "##t0": 887,
      "prefetcht0": 888,
      "vpinsr": 889,
      "vmovdqa32": 890,
      "fcomi": 891,
      "packsswb": 892,
      "andnps": 893,
      "fcmovnu": 894,
      "fstpnc": 895,
      "fstpnce": 896,
      "##extr": 897,
      "cmplt": 898,
      "vpinsrd": 899,
      "fcmovbe": 900,
      "paddusw": 901,
      "##rnd": 902,
      "faddp": 903,
      "##rnds": 904,
      "pmulld": 905,
      "##msg": 906,
      "sha1": 907,
      "##vb": 908,
      "vmulss": 909,
      "vextracti128": 910,
      "vpclmulqdq": 911,
      "pmulh": 912,
      "pmovzx": 913,
      "##use": 914,
      "pause": 915,
      "vpcmpneq": 916,
      "cvtps2dq": 917,
      "fcompi": 918,
      "tzcnt": 919,
      "fncl": 920,
      "##testw": 921,
      "ffree": 922,
      "fnclex": 923,
      "##am": 924,
      "fxam": 925,
      "kor": 926,
      "vpcmpneqd": 927,
      "kortestw": 928,
      "aes": 929,
      "##ass": 930,
      "##ey": 931,
      "##gen": 932,
      "##key": 933,
      "aeskey": 934,
      "##assist": 935,
      "##genassist": 936,
      "aeskeygenassist": 937,
      "pextr": 938,
      "vaesenclast": 939,
      "##bd": 940,
      "##132": 941,
      "kmovq": 942,
      "##2x": 943,
      "aesdeclast": 944,
      "fe": 945,
      "femms": 946,
      "pextrw": 947,
      "vaesdeclast": 948,
      "mps": 949,
      "mpsadbw": 950,
      "##132ps": 951,
      "##nop": 952,
      "##80": 953,
      "##87": 954,
      "##_nop": 955,
      "##8087": 956,
      "##8087_nop": 957,
      "fen": 958,
      "##i8087_nop": 959,
      "fldl": 960,
      "feni8087_nop": 961,
      "popfq": 962,
      "sha256rnds": 963,
      "sha256rnds2": 964,
      "##rand": 965,
      "rdrand": 966,
      "##lesd": 967,
      "divpd": 968,
      "vpmullw": 969,
      "cbw": 970,
      "##vd": 971,
      "pminub": 972,
      "cmpnlesd": 973,
      "adcx": 974,
      "vfmadd132ps": 975,
      "pshufw": 976,
      "fp": 977,
      "pavgw": 978,
      "##int": 979,
      "##ndint": 980,
      "paddb": 981,
      "frndint": 982,
      "notra": 983,
      "vand": 984,
      "vpmulld": 985,
      "notrack": 986,
      "unpckhps": 987,
      "minss": 988,
      "pblend": 989,
      "fucom": 990,
      "vpblendvb": 991,
      "pmulhuw": 992,
      "vsub": 993,
      "##pd2dq": 994,
      "##usdw": 995,
      "pushfq": 996,
      "pcmpest": 997,
      "cvttpd2dq": 998,
      "##bsw": 999
    }
  }
}