{
  "version": "1.0",
  "truncation": null,
  "padding": null,
  "added_tokens": [
    {
      "id": 0,
      "content": "<UNK>",
      "single_word": true,
      "lstrip": false,
      "rstrip": false,
      "normalized": false,
      "special": true
    },
    {
      "id": 1,
      "content": "<SEP>",
      "single_word": true,
      "lstrip": false,
      "rstrip": false,
      "normalized": false,
      "special": true
    },
    {
      "id": 2,
      "content": "<MASK>",
      "single_word": true,
      "lstrip": false,
      "rstrip": false,
      "normalized": false,
      "special": true
    },
    {
      "id": 3,
      "content": "<CLS>",
      "single_word": true,
      "lstrip": false,
      "rstrip": false,
      "normalized": false,
      "special": true
    },
    {
      "id": 4,
      "content": "<HEX>",
      "single_word": true,
      "lstrip": false,
      "rstrip": false,
      "normalized": false,
      "special": true
    },
    {
      "id": 5,
      "content": "<OFFSET>",
      "single_word": true,
      "lstrip": false,
      "rstrip": false,
      "normalized": false,
      "special": true
    }
  ],
  "normalizer": null,
  "pre_tokenizer": {
    "type": "Sequence",
    "pretokenizers": [
      {
        "type": "Split",
        "pattern": {
          "String": "<[^>]+>|\\[[^\\]]+\\]|\\w+"
        },
        "behavior": "Isolated",
        "invert": false
      },
      {
        "type": "Whitespace"
      }
    ]
  },
  "post_processor": null,
  "decoder": null,
  "model": {
    "type": "WordPiece",
    "unk_token": "<UNK>",
    "continuing_subword_prefix": "##",
    "max_input_chars_per_word": 100,
    "vocab": {
      "<UNK>": 0,
      "<SEP>": 1,
      "<MASK>": 2,
      "<CLS>": 3,
      "<HEX>": 4,
      "<OFFSET>": 5,
      "0": 6,
      "1": 7,
      "2": 8,
      "3": 9,
      "4": 10,
      "5": 11,
      "6": 12,
      "7": 13,
      "8": 14,
      "<": 15,
      ">": 16,
      "E": 17,
      "P": 18,
      "S": 19,
      "_": 20,
      "a": 21,
      "b": 22,
      "c": 23,
      "d": 24,
      "e": 25,
      "f": 26,
      "g": 27,
      "h": 28,
      "i": 29,
      "j": 30,
      "k": 31,
      "l": 32,
      "m": 33,
      "n": 34,
      "o": 35,
      "p": 36,
      "q": 37,
      "r": 38,
      "s": 39,
      "t": 40,
      "u": 41,
      "v": 42,
      "w": 43,
      "x": 44,
      "y": 45,
      "z": 46,
      "##n": 47,
      "##c": 48,
      "##x": 49,
      "##s": 50,
      "##a": 51,
      "##v": 52,
      "##e": 53,
      "##h": 54,
      "##u": 55,
      "##f": 56,
      "##p": 57,
      "##d": 58,
      "##m": 59,
      "##o": 60,
      "##b": 61,
      "##k": 62,
      "##r": 63,
      "##t": 64,
      "##i": 65,
      "##w": 66,
      "##2": 67,
      "##q": 68,
      "##l": 69,
      "##3": 70,
      "##4": 71,
      "##j": 72,
      "##g": 73,
      "##y": 74,
      "##1": 75,
      "##6": 76,
      "##z": 77,
      "##_": 78,
      "##S": 79,
      "##E": 80,
      "##P": 81,
      "##>": 82,
      "##8": 83,
      "##5": 84,
      "##0": 85,
      "##7": 86,
      "<S": 87,
      "##EP": 88,
      "<SEP": 89,
      "##ov": 90,
      "mov": 91,
      "in": 92,
      "int": 93,
      "int3": 94,
      "##sh": 95,
      "pu": 96,
      "push": 97,
      "##al": 98,
      "##all": 99,
      "call": 100,
      "ad": 101,
      "##mp": 102,
      "add": 103,
      "le": 104,
      "lea": 105,
      "##op": 106,
      "cmp": 107,
      "pop": 108,
      "je": 109,
      "##st": 110,
      "##est": 111,
      "test": 112,
      "jmp": 113,
      "##or": 114,
      "xor": 115,
      "jn": 116,
      "jne": 117,
      "##ub": 118,
      "##et": 119,
      "sub": 120,
      "ret": 121,
      "nop": 122,
      "##nd": 123,
      "and": 124,
      "sh": 125,
      "##ps": 126,
      "inc": 127,
      "##zx": 128,
      "movzx": 129,
      "or": 130,
      "##dq": 131,
      "jb": 132,
      "##ul": 133,
      "adc": 134,
      "##sd": 135,
      "##mul": 136,
      "ja": 137,
      "shl": 138,
      "imul": 139,
      "##ec": 140,
      "shr": 141,
      "dec": 142,
      "movu": 143,
      "movups": 144,
      "##mov": 145,
      "movs": 146,
      "##dd": 147,
      "movdq": 148,
      "movsx": 149,
      "mova": 150,
      "jae": 151,
      "jl": 152,
      "##ck": 153,
      "##add": 154,
      "cdq": 155,
      "lo": 156,
      "##sb": 157,
      "jbe": 158,
      "cmov": 159,
      "ou": 160,
      "out": 161,
      "movdqa": 162,
      "jg": 163,
      "movaps": 164,
      "sb": 165,
      "sbb": 166,
      "movsxd": 167,
      "movsd": 168,
      "sa": 169,
      "vp": 170,
      "js": 171,
      "sar": 172,
      "##iv": 173,
      "##ch": 174,
      "vmov": 175,
      "##chg": 176,
      "jle": 177,
      "lock": 178,
      "st": 179,
      "xchg": 180,
      "set": 181,
      "##xor": 182,
      "##ld": 183,
      "mul": 184,
      "##ne": 185,
      "jns": 186,
      "##div": 187,
      "xorps": 188,
      "movdqu": 189,
      "##np": 190,
      "##npck": 191,
      "idiv": 192,
      "vmovdq": 193,
      "ro": 194,
      "rol": 195,
      "##addd": 196,
      "ps": 197,
      "sto": 198,
      "outsd": 199,
      "jge": 200,
      "##uf": 201,
      "pxor": 202,
      "##eg": 203,
      "neg": 204,
      "##shuf": 205,
      "popal": 206,
      "insb": 207,
      "##ve": 208,
      "##bs": 209,
      "leave": 210,
      "movq": 211,
      "movabs": 212,
      "vmovdqu": 213,
      "outsb": 214,
      "punpck": 215,
      "paddd": 216,
      "##pd": 217,
      "##ot": 218,
      "##rp": 219,
      "arp": 220,
      "arpl": 221,
      "ror": 222,
      "not": 223,
      "cmove": 224,
      "shld": 225,
      "xadd": 226,
      "aa": 227,
      "sete": 228,
      "##vt": 229,
      "cvt": 230,
      "##wd": 231,
      "psr": 232,
      "##stp": 233,
      "##ss": 234,
      "stosd": 235,
      "punpckl": 236,
      "bt": 237,
      "cmova": 238,
      "pshuf": 239,
      "jo": 240,
      "fstp": 241,
      "setne": 242,
      "mulsd": 243,
      "loop": 244,
      "div": 245,
      "cmovne": 246,
      "##ep": 247,
      "movd": 248,
      "rep": 249,
      "##er": 250,
      "insd": 251,
      "##om": 252,
      "rc": 253,
      "##sw": 254,
      "vmova": 255,
      "vmovaps": 256,
      "fi": 257,
      "lod": 258,
      "da": 259,
      "##ca": 260,
      "vpxor": 261,
      "stosb": 262,
      "##ou": 263,
      "addsd": 264,
      "##omi": 265,
      "vpaddd": 266,
      "movss": 267,
      "cmovb": 268,
      "##si": 269,
      "fld": 270,
      "##unpck": 271,
      "cl": 272,
      "psl": 273,
      "vps": 274,
      "##sub": 275,
      "vmovdqa": 276,
      "vpunpck": 277,
      "sca": 278,
      "rcl": 279,
      "por": 280,
      "##ad": 281,
      "##addw": 282,
      "##ound": 283,
      "bound": 284,
      "##bw": 285,
      "##omisd": 286,
      "##hf": 287,
      "##fd": 288,
      "psrld": 289,
      "cmovae": 290,
      "retf": 291,
      "pushal": 292,
      "##qdq": 293,
      "shrd": 294,
      "##ldq": 295,
      "subsd": 296,
      "##nt": 297,
      "jp": 298,
      "##en": 299,
      "pslld": 300,
      "movsb": 301,
      "loopne": 302,
      "pshufd": 303,
      "sal": 304,
      "pa": 305,
      "##cmp": 306,
      "pshufb": 307,
      "punpckh": 308,
      "cld": 309,
      "paddw": 310,
      "das": 311,
      "lodsd": 312,
      "##enc": 313,
      "jnp": 314,
      "vpsr": 315,
      "vshuf": 316,
      "##la": 317,
      "vshufps": 318,
      "sti": 319,
      "comisd": 320,
      "##lw": 321,
      "vadd": 322,
      "##it": 323,
      "movapd": 324,
      "std": 325,
      "##madd": 326,
      "wa": 327,
      "wait": 328,
      "clc": 329,
      "daa": 330,
      "##lt": 331,
      "vpshuf": 332,
      "##si2": 333,
      "cvtsi2": 334,
      "lodsb": 335,
      "##tb": 336,
      "##lpd": 337,
      "aas": 338,
      "##28": 339,
      "##128": 340,
      "cvtt": 341,
      "pcmp": 342,
      "xla": 343,
      "xlatb": 344,
      "hlt": 345,
      "scasb": 346,
      "##eq": 347,
      "jno": 348,
      "cdqe": 349,
      "##2si": 350,
      "stc": 351,
      "vaddps": 352,
      "aaa": 353,
      "int1": 354,
      "cwd": 355,
      "cmpsb": 356,
      "cwde": 357,
      "##erm": 358,
      "cli": 359,
      "sahf": 360,
      "vperm": 361,
      "fc": 362,
      "pushfd": 363,
      "##es": 364,
      "cmovg": 365,
      "psub": 366,
      "##cx": 367,
      "##cxz": 368,
      "salc": 369,
      "##subps": 370,
      "jecxz": 371,
      "vpunpckh": 372,
      "cmpsd": 373,
      "aam": 374,
      "punpckldq": 375,
      "lj": 376,
      "ljmp": 377,
      "##esenc": 378,
      "##ns": 379,
      "##mc": 380,
      "##xchg": 381,
      "cmpxchg": 382,
      "aad": 383,
      "##nter": 384,
      "enter": 385,
      "vmul": 386,
      "punpcklbw": 387,
      "cmc": 388,
      "movlpd": 389,
      "##dq2": 390,
      "scasd": 391,
      "loope": 392,
      "##ret": 393,
      "into": 394,
      "cmovl": 395,
      "cvtdq2": 396,
      "iret": 397,
      "iretd": 398,
      "la": 399,
      "vsubps": 400,
      "popfd": 401,
      "cvtsi2sd": 402,
      "rcr": 403,
      "##maddwd": 404,
      "punpcklwd": 405,
      "lahf": 406,
      "pcmpeq": 407,
      "uc": 408,
      "vmulps": 409,
      "punpcklqdq": 410,
      "va": 411,
      "pmul": 412,
      "psrldq": 413,
      "divsd": 414,
      "##call": 415,
      "vpunpckl": 416,
      "lcall": 417,
      "setb": 418,
      "vpsrld": 419,
      "bsw": 420,
      "##ap": 421,
      "bswap": 422,
      "##sd2si": 423,
      "setg": 424,
      "cvttsd2si": 425,
      "##esd": 426,
      "##ms": 427,
      "vpsl": 428,
      "pand": 429,
      "mulss": 430,
      "##esdec": 431,
      "bts": 432,
      "##addq": 433,
      "##br": 434,
      "vpshufd": 435,
      "les": 436,
      "fdiv": 437,
      "stosw": 438,
      "ucomisd": 439,
      "fn": 440,
      "ud": 441,
      "##msk": 442,
      "ld": 443,
      "##i128": 444,
      "cvtdq2pd": 445,
      "##omp": 446,
      "##ig": 447,
      "##ign": 448,
      "vperm2": 449,
      "##align": 450,
      "aesenc": 451,
      "##movmsk": 452,
      "##movmskb": 453,
      "##alignr": 454,
      "lds": 455,
      "fadd": 456,
      "bs": 457,
      "##id": 458,
      "pack": 459,
      "vpaddw": 460,
      "fnst": 461,
      "##oad": 462,
      "##cast": 463,
      "##broad": 464,
      "##broadcast": 465,
      "cp": 466,
      "##uid": 467,
      "cpuid": 468,
      "ud2": 469,
      "pmaddwd": 470,
      "fild": 471,
      "punpckhwd": 472,
      "psubw": 473,
      "vpshufb": 474,
      "palignr": 475,
      "shuf": 476,
      "fsub": 477,
      "##f128": 478,
      "vpor": 479,
      "vpslld": 480,
      "btr": 481,
      "##32": 482,
      "cmovs": 483,
      "pcmpeqb": 484,
      "shufps": 485,
      "seta": 486,
      "##usw": 487,
      "vpa": 488,
      "##aw": 489,
      "vz": 490,
      "vzer": 491,
      "vxor": 492,
      "vxorps": 493,
      "##pp": 494,
      "##oupp": 495,
      "vzeroupp": 496,
      "vzeroupper": 497,
      "##ins": 498,
      "pmovmskb": 499,
      "cmovbe": 500,
      "##64": 501,
      "addss": 502,
      "##omiss": 503,
      "##uswb": 504,
      "psrad": 505,
      "vaesdec": 506,
      "##udq": 507,
      "fmul": 508,
      "fist": 509,
      "paddq": 510,
      "fiadd": 511,
      "pslldq": 512,
      "vf": 513,
      "##ex": 514,
      "cmovle": 515,
      "vbroadcast": 516,
      "##lq": 517,
      "##ntdq": 518,
      "##fenc": 519,
      "##fence": 520,
      "cmovge": 521,
      "vperm2i128": 522,
      "vpr": 523,
      "vaesenc": 524,
      "##ra": 525,
      "unpck": 526,
      "vprot": 527,
      "##ss2si": 528,
      "pmuludq": 529,
      "cvttss2si": 530,
      "fcomp": 531,
      "vprotd": 532,
      "##ext": 533,
      "##lps": 534,
      "cmovns": 535,
      "##21": 536,
      "##213": 537,
      "pshuflw": 538,
      "##213ps": 539,
      "##sdw": 540,
      "punpckhbw": 541,
      "vpunpckldq": 542,
      "cvtsi2ss": 543,
      "punpckhdq": 544,
      "rorx": 545,
      "##cw": 546,
      "fcom": 547,
      "fisub": 548,
      "fnstsw": 549,
      "vpcmp": 550,
      "packuswb": 551,
      "##ssdw": 552,
      "vpmaddwd": 553,
      "vpunpckhdq": 554,
      "vmovdqu64": 555,
      "vpunpcklqdq": 556,
      "##insr": 557,
      "##hw": 558,
      "##hps": 559,
      "fic": 560,
      "##ct": 561,
      "bsr": 562,
      "##ract": 563,
      "vext": 564,
      "vextract": 565,
      "andps": 566,
      "psraw": 567,
      "movupd": 568,
      "fidiv": 569,
      "##ps2": 570,
      "vpunpckhqdq": 571,
      "bnd": 572,
      "bsf": 573,
      "fx": 574,
      "aesdec": 575,
      "vmovu": 576,
      "vpack": 577,
      "##tp": 578,
      "fisttp": 579,
      "##in": 580,
      "cvtdq2ps": 581,
      "##ax": 582,
      "vpaddq": 583,
      "psrlw": 584,
      "psubd": 585,
      "fcmov": 586,
      "vmovups": 587,
      "vpunpcklbw": 588,
      "punpckhqdq": 589,
      "vpcmpeq": 590,
      "cvtps2": 591,
      "pmullw": 592,
      "pinsr": 593,
      "mulps": 594,
      "fdivr": 595,
      "vpunpcklwd": 596,
      "vfmadd": 597,
      "vmovdqu32": 598,
      "setl": 599,
      "vmovntdq": 600,
      "vpmul": 601,
      "lfence": 602,
      "subss": 603,
      "vpunpckhwd": 604,
      "vperm2f128": 605,
      "vextractf128": 606,
      "fxch": 607,
      "xorpd": 608,
      "divss": 609,
      "vmovd": 610,
      "andpd": 611,
      "comiss": 612,
      "fst": 613,
      "##re": 614,
      "##ldt": 615,
      "padd": 616,
      "##env": 617,
      "pinsrw": 618,
      "sldt": 619,
      "##adbw": 620,
      "vpand": 621,
      "fsubr": 622,
      "pcmpeqw": 623,
      "ucomiss": 624,
      "fistp": 625,
      "##up": 626,
      "cvtps2pd": 627,
      "##last": 628,
      "psrlq": 629,
      "addps": 630,
      "fb": 631,
      "packssdw": 632,
      "##neq": 633,
      "mulpd": 634,
      "vpunpckhbw": 635,
      "##ss2": 636,
      "##ss2sd": 637,
      "fnstcw": 638,
      "##gt": 639,
      "pm": 640,
      "cvtss2sd": 641,
      "rd": 642,
      "vins": 643,
      "##ert": 644,
      "vinsert": 645,
      "##x4": 646,
      "##32x4": 647,
      "fimul": 648,
      "unpcklpd": 649,
      "##sd2": 650,
      "##sd2ss": 651,
      "ficomp": 652,
      "vpermb": 653,
      "##i32x4": 654,
      "setbe": 655,
      "cvtsd2ss": 656,
      "vunpck": 657,
      "vpbroadcast": 658,
      "fisubr": 659,
      "##cl": 660,
      "##hpd": 661,
      "vpsrlw": 662,
      "fidivr": 663,
      "pcmpgt": 664,
      "psadbw": 665,
      "##msub": 666,
      "movnt": 667,
      "vfmsub": 668,
      "psllw": 669,
      "##add213ps": 670,
      "##sub213ps": 671,
      "vfmaddsub213ps": 672,
      "vfmsubadd213ps": 673,
      "fdivp": 674,
      "setae": 675,
      "movsw": 676,
      "cq": 677,
      "cqo": 678,
      "movntdq": 679,
      "vbroadcastss": 680,
      "vmovss": 681,
      "vpsub": 682,
      "vaddsubps": 683,
      "pcmpeqd": 684,
      "addpd": 685,
      "fldcw": 686,
      "sfence": 687,
      "##ubsw": 688,
      "##maddubsw": 689,
      "vbroadcasti32x4": 690,
      "##vg": 691,
      "vg": 692,
      "##le": 693,
      "outsw": 694,
      "min": 695,
      "fldenv": 696,
      "vmovq": 697,
      "##hlps": 698,
      "pre": 699,
      "##fet": 700,
      "prefet": 701,
      "prefetch": 702,
      "##af": 703,
      "##fi": 704,
      "##f2": 705,
      "##p8": 706,
      "##neqb": 707,
      "vgf2": 708,
      "##affi": 709,
      "##p8affi": 710,
      "vgf2p8affi": 711,
      "vgf2p8affineqb": 712,
      "vpmovmskb": 713,
      "pavg": 714,
      "vpermq": 715,
      "pshufhw": 716,
      "##movzx": 717,
      "##usb": 718,
      "##ist": 719,
      "##ave": 720,
      "vpackuswb": 721,
      "vpbroadcastd": 722,
      "movhlps": 723,
      "fbld": 724,
      "##uc": 725,
      "ficom": 726,
      "##sc": 727,
      "vpermi": 728,
      "fns": 729,
      "fnsave": 730,
      "##dup": 731,
      "##shdup": 732,
      "vmovshdup": 733,
      "fr": 734,
      "pmaddubsw": 735,
      "setge": 736,
      "fldz": 737,
      "max": 738,
      "fuc": 739,
      "repz": 740,
      "sha": 741,
      "vpsrldq": 742,
      "vpackssdw": 743,
      "pandn": 744,
      "##mulqdq": 745,
      "##clmulqdq": 746,
      "##lend": 747,
      "pmax": 748,
      "##blend": 749,
      "xg": 750,
      "##bv": 751,
      "##etbv": 752,
      "##pd2": 753,
      "vpsrad": 754,
      "xgetbv": 755,
      "kmov": 756,
      "##ri": 757,
      "end": 758,
      "##br64": 759,
      "endbr64": 760,
      "movhps": 761,
      "andn": 762,
      "vinserti128": 763,
      "vmovdqu8": 764,
      "vpsubw": 765,
      "vpsraw": 766,
      "pmulhw": 767,
      "vmovsd": 768,
      "vpcmpeqb": 769,
      "orps": 770,
      "lodsw": 771,
      "##sq": 772,
      "pavgb": 773,
      "##tsc": 774,
      "rdtsc": 775,
      "psllq": 776,
      "vpslldq": 777,
      "paddsw": 778,
      "fcmovn": 779,
      "repne": 780,
      "subps": 781,
      "repe": 782,
      "psubq": 783,
      "##stor": 784,
      "##cnt": 785,
      "pcmpgtd": 786,
      "minsd": 787,
      "movntps": 788,
      "orpd": 789,
      "frstor": 790,
      "setle": 791,
      "##cs": 792,
      "vc": 793,
      "##xcs": 794,
      "##mxcs": 795,
      "##mxcsr": 796,
      "popaw": 797,
      "fld1": 798,
      "fcmovu": 799,
      "fmulp": 800,
      "seto": 801,
      "vbroadcasti128": 802,
      "pcmpist": 803,
      "pcmpistri": 804,
      "##test": 805,
      "##se": 806,
      "stosq": 807,
      "vpmovzx": 808,
      "##rt": 809,
      "fch": 810,
      "unpcklps": 811,
      "fchs": 812,
      "cvtpd2": 813,
      "unpckhpd": 814,
      "##be": 815,
      "vpsllw": 816,
      "cvtpd2ps": 817,
      "vpsrlq": 818,
      "##npd": 819,
      "##lhps": 820,
      "fnstenv": 821,
      "vpcmpeqw": 822,
      "vunpcklpd": 823,
      "cmpn": 824,
      "vpblend": 825,
      "vmovhps": 826,
      "subpd": 827,
      "psubusb": 828,
      "vpmuludq": 829,
      "##fq": 830,
      "vpalignr": 831,
      "ud0": 832,
      "movlhps": 833,
      "vcvt": 834,
      "##os": 835,
      "vunpckhpd": 836,
      "##25": 837,
      "##256": 838,
      "cmovo": 839,
      "vpmulhw": 840,
      "pcmpgtw": 841,
      "sha256": 842,
      "movsq": 843,
      "aesenclast": 844,
      "sq": 845,
      "sqrt": 846,
      "pclmulqdq": 847,
      "##nc": 848,
      "maxsd": 849,
      "pmin": 850,
      "vinsertf128": 851,
      "vpermi2": 852,
      "fbstp": 853,
      "fucomp": 854,
      "vpm": 855,
      "vpermi2b": 856,
      "bz": 857,
      "##hi": 858,
      "##wb": 859,
      "##sswb": 860,
      "pmaxsw": 861,
      "bzhi": 862,
      "setnp": 863,
      "##ddup": 864,
      "stmxcsr": 865,
      "kmovd": 866,
      "ff": 867,
      "##zcnt": 868,
      "movlps": 869,
      "vpermilps": 870,
      "ffre": 871,
      "andnpd": 872,
      "##mms": 873,
      "vpxord": 874,
      "vpcmpeqd": 875,
      "fa": 876,
      "fsubp": 877,
      "fabs": 878,
      "movddup": 879,
      "vpxorq": 880,
      "fcos": 881,
      "movnti": 882,
      "shrx": 883,
      "##nta": 884,
      "prefetchnta": 885,
      "##uw": 886,
      "##t0": 887,
      "prefetcht0": 888,
      "vpinsr": 889,
      "vmovdqa32": 890,
      "fcomi": 891,
      "packsswb": 892,
      "andnps": 893,
      "fcmovnu": 894,
      "fstpnc": 895,
      "fstpnce": 896,
      "##extr": 897,
      "cmplt": 898,
      "vpinsrd": 899,
      "fcmovbe": 900,
      "paddusw": 901,
      "##rnd": 902,
      "faddp": 903,
      "##rnds": 904,
      "pmulld": 905,
      "##msg": 906,
      "sha1": 907,
      "##vb": 908,
      "vmulss": 909,
      "vextracti128": 910,
      "vpclmulqdq": 911,
      "pmulh": 912,
      "pmovzx": 913,
      "##use": 914,
      "pause": 915,
      "vpcmpneq": 916,
      "cvtps2dq": 917,
      "fcompi": 918,
      "tzcnt": 919,
      "fncl": 920,
      "##testw": 921,
      "ffree": 922,
      "fnclex": 923,
      "##am": 924,
      "fxam": 925,
      "kor": 926,
      "vpcmpneqd": 927,
      "kortestw": 928,
      "aes": 929,
      "##ass": 930,
      "##ey": 931,
      "##key": 932,
      "##gen": 933,
      "aeskey": 934,
      "##assist": 935,
      "##genassist": 936,
      "aeskeygenassist": 937,
      "pextr": 938,
      "vaesenclast": 939,
      "##bd": 940,
      "##132": 941,
      "kmovq": 942,
      "##2x": 943,
      "aesdeclast": 944,
      "fe": 945,
      "femms": 946,
      "pextrw": 947,
      "vaesdeclast": 948,
      "mps": 949,
      "mpsadbw": 950,
      "##132ps": 951,
      "##nop": 952,
      "##_nop": 953,
      "##80": 954,
      "##87": 955,
      "##8087": 956,
      "##8087_nop": 957,
      "fen": 958,
      "##i8087_nop": 959,
      "fldl": 960,
      "feni8087_nop": 961,
      "popfq": 962,
      "sha256rnds": 963,
      "sha256rnds2": 964,
      "##rand": 965,
      "rdrand": 966,
      "##lesd": 967,
      "divpd": 968,
      "vpmullw": 969,
      "cbw": 970,
      "##vd": 971,
      "pminub": 972,
      "cmpnlesd": 973,
      "adcx": 974,
      "vfmadd132ps": 975,
      "pshufw": 976,
      "fp": 977,
      "pavgw": 978,
      "##int": 979,
      "##ndint": 980,
      "paddb": 981,
      "frndint": 982,
      "notra": 983,
      "vand": 984,
      "vpmulld": 985,
      "notrack": 986,
      "unpckhps": 987,
      "minss": 988,
      "pblend": 989,
      "fucom": 990,
      "vpblendvb": 991,
      "pmulhuw": 992,
      "vsub": 993,
      "##pd2dq": 994,
      "##usdw": 995,
      "pushfq": 996,
      "pcmpest": 997,
      "cvttpd2dq": 998,
      "##bsw": 999,
      "##ps2dq": 1000,
      "kunpck": 1001,
      "maxss": 1002,
      "kunpckdq": 1003,
      "fsi": 1004,
      "fsubrp": 1005,
      "vfmadd213ps": 1006,
      "pmaxub": 1007,
      "vcmp": 1008,
      "mulx": 1009,
      "fnin": 1010,
      "fninit": 1011,
      "fsc": 1012,
      "##ale": 1013,
      "sha256msg": 1014,
      "fscale": 1015,
      "##rsw": 1016,
      "vpma": 1017,
      "vpadd": 1018,
      "sets": 1019,
      "psubb": 1020,
      "##ed": 1021,
      "##ox": 1022,
      "adox": 1023,
      "popcnt": 1024,
      "rdse": 1025,
      "vpsubusb": 1026,
      "vpmovzxwd": 1027,
      "rdseed": 1028,
      "vpblendd": 1029,
      "vpmovzxbw": 1030,
      "pabsw": 1031,
      "shufpd": 1032,
      "pcmpestri": 1033,
      "##ltps": 1034,
      "vm": 1035,
      "##sk": 1036,
      "vpmask": 1037,
      "vpmaskmov": 1038,
      "fy": 1039,
      "##l2x": 1040,
      "ldmxcsr": 1041,
      "vpandn": 1042,
      "fyl2x": 1043,
      "ft": 1044,
      "jr": 1045,
      "paddusb": 1046,
      "fucompi": 1047,
      "ftst": 1048,
      "jrcxz": 1049,
      "fdivrp": 1050,
      "sqrtpd": 1051,
      "setns": 1052,
      "vpsllq": 1053,
      "pinsrb": 1054,
      "vpmaddubsw": 1055,
      "pmovzxbd": 1056,
      "vpmaskmovd": 1057,
      "##8b": 1058,
      "cmpxchg8b": 1059,
      "invd": 1060,
      "sy": 1061,
      "vsubss": 1062,
      "vmovnt": 1063,
      "sha1msg": 1064,
      "pmovzxwd": 1065,
      "vmovntps": 1066,
      "fcmovnb": 1067,
      "sqrtsd": 1068,
      "##comp": 1069,
      "vpcomp": 1070,
      "psubsw": 1071,
      "fucomi": 1072,
      "vdiv": 1073,
      "##at": 1074,
      "vpmulh": 1075,
      "vcvtdq2": 1076,
      "vmulsd": 1077,
      "vextracti32x4": 1078,
      "##an": 1079,
      "vpmovzxbd": 1080,
      "cmpltss": 1081,
      "vaddss": 1082,
      "packusdw": 1083,
      "fsin": 1084,
      "vcvtdq2ps": 1085,
      "##m1": 1086,
      "vandpd": 1087,
      "movmsk": 1088,
      "##res": 1089,
      "prefetchw": 1090,
      "vpcompres": 1091,
      "vpcompressd": 1092,
      "vpmin": 1093,
      "sys": 1094,
      "##x2": 1095,
      "##i64": 1096,
      "vporq": 1097,
      "vmovupd": 1098,
      "cmpnle": 1099,
      "pblendvb": 1100,
      "##i64x2": 1101,
      "##vq": 1102,
      "##lvq": 1103,
      "setp": 1104,
      "vpcmpeqq": 1105,
      "fcmovnbe": 1106,
      "ae": 1107,
      "movhpd": 1108,
      "##simc": 1109,
      "aesimc": 1110,
      "f2x": 1111,
      "ptest": 1112,
      "fcompp": 1113,
      "pmulhrsw": 1114,
      "f2xm1": 1115,
      "##g2": 1116,
      "fldlg2": 1117,
      "##gd": 1118,
      "emms": 1119,
      "btc": 1120,
      "vpbroadcastq": 1121,
      "pminsw": 1122,
      "vptest": 1123,
      "vpmax": 1124,
      "##ter": 1125,
      "##orq": 1126,
      "vshufi64x2": 1127,
      "vprorq": 1128,
      "##nl": 1129,
      "vpter": 1130,
      "##nlo": 1131,
      "vpternlo": 1132,
      "##gtb": 1133,
      "fcmovne": 1134,
      "vcomiss": 1135,
      "cmpnltps": 1136,
      "lar": 1137,
      "##sqrt": 1138,
      "pblendw": 1139,
      "##xt": 1140,
      "##next": 1141,
      "##rnds4": 1142,
      "sha1next": 1143,
      "sha1rnds4": 1144,
      "sha256msg2": 1145,
      "sha256msg1": 1146,
      "sha1nexte": 1147,
      "vpermd": 1148,
      "##ldup": 1149,
      "vcvtps2dq": 1150,
      "cmpltsd": 1151,
      "maxps": 1152,
      "vcvtt": 1153,
      "fpre": 1154,
      "lzcnt": 1155,
      "##ud": 1156,
      "vunpcklps": 1157,
      "fucompp": 1158,
      "ffreep": 1159,
      "vmax": 1160,
      "vdivss": 1161,
      "pcmpgtb": 1162,
      "vunpckhps": 1163,
      "movntq": 1164,
      "vpsubd": 1165,
      "fldl2": 1166,
      "vpaddb": 1167,
      "##sldup": 1168,
      "vmovsldup": 1169,
      "scasw": 1170,
      "minps": 1171,
      "##pi": 1172,
      "vaddsd": 1173,
      "vpavg": 1174,
      "vpavgb": 1175,
      "##inpd": 1176,
      "divps": 1177,
      "sqrtps": 1178,
      "cmpltpd": 1179,
      "##pmc": 1180,
      "pab": 1181,
      "vbroadcastf128": 1182,
      "vpcmpgt": 1183,
      "rdpmc": 1184,
      "maxpd": 1185,
      "##gdt": 1186,
      "sgdt": 1187,
      "##23": 1188,
      "vfmadd23": 1189,
      "vfmadd231": 1190,
      "vpackusdw": 1191,
      "vpblendw": 1192,
      "fpat": 1193,
      "sha1msg2": 1194,
      "sha1msg1": 1195,
      "vpmulhuw": 1196,
      "fprem": 1197,
      "fpatan": 1198,
      "cmpeq": 1199,
      "cmpnlepd": 1200,
      "vsqrt": 1201,
      "##idt": 1202,
      "pabsd": 1203,
      "##her": 1204,
      "vmin": 1205,
      "##ather": 1206,
      "vpmulhrsw": 1207,
      "##nltps": 1208,
      "psubusw": 1209,
      "vpbroadcastb": 1210,
      "vpbroadcastw": 1211,
      "vcmpnltps": 1212,
      "movmskps": 1213,
      "vmaxps": 1214,
      "minpd": 1215,
      "pf": 1216,
      "##tr": 1217,
      "##cmpeq": 1218,
      "vminps": 1219,
      "pfcmpeq": 1220,
      "ltr": 1221,
      "##gq": 1222,
      "pushaw": 1223,
      "vandps": 1224,
      "sysret": 1225,
      "vpternlogq": 1226,
      "vaddpd": 1227,
      "lidt": 1228,
      "##tan": 1229,
      "##ncos": 1230,
      "fptan": 1231,
      "fsincos": 1232,
      "vcmpps": 1233,
      "vcvttps2dq": 1234,
      "##n2": 1235,
      "shlx": 1236,
      "vmulpd": 1237,
      "fldln2": 1238,
      "vpsrlvq": 1239,
      "vpsllvq": 1240,
      "cmpeqsd": 1241,
      "##sx": 1242,
      "##movsx": 1243,
      "vmovdqa64": 1244,
      "movmskpd": 1245,
      "##lvd": 1246,
      "##dqu": 1247,
      "vpsllvd": 1248,
      "vpaddsw": 1249,
      "vpextr": 1250,
      "fldl2t": 1251,
      "##ignw": 1252,
      "vpacksswb": 1253,
      "##dpd": 1254,
      "vmovmsk": 1255,
      "vprotq": 1256,
      "vgather": 1257,
      "vsubsd": 1258,
      "vdivps": 1259,
      "syscall": 1260,
      "vmovmskps": 1261,
      "vgatherdpd": 1262,
      "vuc": 1263,
      "pmovsx": 1264,
      "##perm": 1265,
      "addsub": 1266,
      "vpperm": 1267,
      "cvttps2dq": 1268,
      "cmpnless": 1269,
      "addsubpd": 1270,
      "##pss": 1271,
      "rcpss": 1272,
      "fcmove": 1273,
      "pinsrq": 1274,
      "pmaxuw": 1275,
      "vcmpgt": 1276,
      "##no": 1277,
      "vmovhlps": 1278,
      "lddqu": 1279,
      "pmaxud": 1280,
      "vblend": 1281,
      "vmovapd": 1282,
      "fldpi": 1283,
      "pinsrd": 1284,
      "vpaddusb": 1285,
      "vpsignw": 1286,
      "mfence": 1287,
      "##oq": 1288,
      "##_oq": 1289,
      "cmple": 1290,
      "vpsubb": 1291,
      "vcvtsi2": 1292,
      "sqrtss": 1293,
      "cmpltps": 1294,
      "vpextrd": 1295,
      "vcmpgt_oq": 1296,
      "movbe": 1297,
      "vfmadd231ps": 1298,
      "ph": 1299,
      "##2q": 1300,
      "vpsadbw": 1301,
      "##rm": 1302,
      "movdq2q": 1303,
      "vph": 1304,
      "vpmullq": 1305,
      "pcmpestrm": 1306,
      "vpminsw": 1307,
      "##vps": 1308,
      "##pps": 1309,
      "rcpps": 1310,
      "vfmadd213": 1311,
      "pmaxsd": 1312,
      "vpminub": 1313,
      "vpternlogd": 1314,
      "vpcmpgtd": 1315,
      "vpcmpgtq": 1316,
      "vsqrtss": 1317,
      "##nmadd": 1318,
      "vfnmadd": 1319,
      "vucomiss": 1320,
      "cmpless": 1321,
      "vpabsw": 1322,
      "vcvtsd2ss": 1323,
      "fldl2e": 1324,
      "vfmadd231pd": 1325,
      "##oall": 1326,
      "vzeroall": 1327,
      "##senter": 1328,
      "vcvtss2sd": 1329,
      "sysenter": 1330,
      "vpmaxsw": 1331,
      "vsqrtps": 1332,
      "vphaddd": 1333,
      "ls": 1334,
      "##ts": 1335,
      "clts": 1336,
      "vcomisd": 1337,
      "pminud": 1338,
      "##132ss": 1339,
      "vcmpgt_oqps": 1340,
      "phaddw": 1341,
      "lsl": 1342,
      "wb": 1343,
      "##nps": 1344,
      "##f32x4": 1345,
      "##ph": 1346,
      "##2ps": 1347,
      "ud1": 1348,
      "vbroadcastf32x4": 1349,
      "##invd": 1350,
      "vpandq": 1351,
      "pminsd": 1352,
      "vandnps": 1353,
      "pmovsxdq": 1354,
      "vfmadd213sd": 1355,
      "wbinvd": 1356,
      "vmovlhps": 1357,
      "vmovddup": 1358,
      "vpermt": 1359,
      "fcmovb": 1360,
      "vfmsub132ps": 1361,
      "vblendvps": 1362,
      "vr": 1363,
      "##save": 1364,
      "##bq": 1365,
      "##opcnt": 1366,
      "cmovno": 1367,
      "vpopcnt": 1368,
      "setno": 1369,
      "##ssq": 1370,
      "##oundss": 1371,
      "fxsave": 1372,
      "##ressq": 1373,
      "vinserti32x4": 1374,
      "movntdqa": 1375,
      "vpmovzxbq": 1376,
      "cmpnlt": 1377,
      "vpcompressq": 1378,
      "vpminsd": 1379,
      "vfnmadd132ss": 1380,
      "vpermt2": 1381,
      "vroundss": 1382,
      "vpopcntb": 1383,
      "##gather": 1384,
      "vpgather": 1385,
      "vpmaxub": 1386,
      "vpmaxsd": 1387,
      "vcvtsi2ss": 1388,
      "blend": 1389,
      "fsqrt": 1390,
      "vor": 1391,
      "xc": 1392,
      "##pt": 1393,
      "##ry": 1394,
      "##rstor": 1395,
      "##qq": 1396,
      "insw": 1397,
      "addsubps": 1398,
      "cmpps": 1399,
      "vbroadcastsd": 1400,
      "fxrstor": 1401,
      "pcmpgtq": 1402,
      "pmovsxwd": 1403,
      "vblendps": 1404,
      "vcvtsi2sd": 1405,
      "vpermt2d": 1406,
      "vpgatherdq": 1407,
      "xcry": 1408,
      "xcrypt": 1409,
      "cmpsw": 1410,
      "str": 1411,
      "cvttps2": 1412,
      "kmovb": 1413,
      "pminuw": 1414,
      "pextrd": 1415,
      "vpminsb": 1416,
      "vpmaxsb": 1417,
      "vucomisd": 1418,
      "cvttps2pi": 1419,
      "lldt": 1420,
      "valign": 1421,
      "cvtsd2si": 1422,
      "cvtss2si": 1423,
      "psubsb": 1424,
      "cvtps2pi": 1425,
      "vcvtph": 1426,
      "vpinsrq": 1427,
      "vpmaskmovq": 1428,
      "cmpnltsd": 1429,
      "vorps": 1430,
      "valignq": 1431,
      "vcvtph2ps": 1432,
      "get": 1433,
      "pi": 1434,
      "##csw": 1435,
      "##sec": 1436,
      "##ldx": 1437,
      "##msr": 1438,
      "vxorpd": 1439,
      "bndldx": 1440,
      "vpmacsw": 1441,
      "getsec": 1442,
      "pi2": 1443,
      "vpmacsww": 1444,
      "vld": 1445,
      "##aq": 1446,
      "##2dq": 1447,
      "cmovp": 1448,
      "psignw": 1449,
      "movq2dq": 1450,
      "vpsraq": 1451,
      "vpcmpgtb": 1452,
      "pmaxsb": 1453,
      "kmovw": 1454,
      "cvtpd2dq": 1455,
      "pminsb": 1456,
      "pmovzxbw": 1457,
      "vminpd": 1458,
      "fprem1": 1459,
      "vmaxpd": 1460,
      "vpcmpgtw": 1461,
      "vpextrq": 1462,
      "vcmpgt_oqpd": 1463,
      "vlddqu": 1464,
      "##uq": 1465,
      "##bsb": 1466,
      "vpmovsx": 1467,
      "pcmpeqq": 1468,
      "vpabsb": 1469,
      "rdmsr": 1470,
      "vpmovzxdq": 1471,
      "vpcmpnequq": 1472,
      "vsubpd": 1473,
      "vcvttss2si": 1474,
      "sidt": 1475,
      "##fw": 1476,
      "##stx": 1477,
      "vper": 1478,
      "##ps2ph": 1479,
      "bndstx": 1480,
      "vfmadd132": 1481,
      "vcvtps2ph": 1482,
      "pmovzxdq": 1483,
      "vdivsd": 1484,
      "vcvtdq2pd": 1485,
      "vpminuw": 1486,
      "vpmaxuw": 1487,
      "vfmadd231sd": 1488,
      "vsqrtsd": 1489,
      "vfnmadd132ps": 1490,
      "blendps": 1491,
      "blendvps": 1492,
      "pi2fw": 1493,
      "vpmovsxwd": 1494,
      "vpermp": 1495,
      "vfmadd132sd": 1496,
      "##nor": 1497,
      "##16": 1498,
      "cmplesd": 1499,
      "movsldup": 1500,
      "vpshuflw": 1501,
      "fnop": 1502,
      "##exit": 1503,
      "vinserti64x2": 1504,
      "pextrq": 1505,
      "vcmpltps": 1506,
      "vpminud": 1507,
      "sysexit": 1508,
      "vpmaxud": 1509,
      "cmpeqss": 1510,
      "vfmadd213pd": 1511,
      "ver": 1512,
      "xa": 1513,
      "xsh": 1514,
      "##uqq": 1515,
      "##fb": 1516,
      "pushf": 1517,
      "cmpneq": 1518,
      "cmpsq": 1519,
      "psig": 1520,
      "cvtpi": 1521,
      "vshufpd": 1522,
      "vshufi32x4": 1523,
      "pmuldq": 1524,
      "vbroadcasti64x2": 1525,
      "vextracti64x2": 1526,
      "vfmaddps": 1527,
      "vptestm": 1528,
      "pabsb": 1529,
      "cmpeqps": 1530,
      "vcmpgtps": 1531,
      "phaddd": 1532,
      "cmpnltss": 1533,
      "xcryptc": 1534,
      "vpermpd": 1535,
      "xsha": 1536,
      "psignd": 1537,
      "cvtpi2ps": 1538,
      "kx": 1539,
      "rsqrt": 1540,
      "xre": 1541,
      "##ase": 1542,
      "##2pd": 1543,
      "popf": 1544,
      "##ecb": 1545,
      "##adddq": 1546,
      "vmovdqu16": 1547,
      "finc": 1548,
      "##adcs": 1549,
      "retfq": 1550,
      "##ltss": 1551,
      "##ctr": 1552,
      "vfmadd132ss": 1553,
      "paddsb": 1554,
      "vpsubq": 1555,
      "##lease": 1556,
      "vcvtqq": 1557,
      "vpmadcs": 1558,
      "vcmpltss": 1559,
      "vcvttsd2si": 1560,
      "vcvttpd2": 1561,
      "vmaxss": 1562,
      "cmpleps": 1563,
      "vphadddq": 1564,
      "xcryptecb": 1565,
      "xcryptctr": 1566,
      "pi2fd": 1567,
      "##norb": 1568,
      "kxnorb": 1569,
      "rsqrtps": 1570,
      "xrelease": 1571,
      "fincstp": 1572,
      "vpmadcswd": 1573,
      "fs": 1574,
      "fd": 1575,
      "jcxz": 1576,
      "kn": 1577,
      "ktestw": 1578,
      "lf": 1579,
      "lss": 1580,
      "wr": 1581,
      "xb": 1582,
      "##cq": 1583,
      "##ui": 1584,
      "##usi": 1585,
      "##unor": 1586,
      "##pm": 1587,
      "##pq": 1588,
      "##dps": 1589,
      "##mb": 1590,
      "##old": 1591,
      "##ofb": 1592,
      "##bc": 1593,
      "##bor": 1594,
      "##rdq": 1595,
      "##qw": 1596,
      "##shrdq": 1597,
      "cmpunor": 1598,
      "##etpm": 1599,
      "##movqw": 1600,
      "vpshrdq": 1601,
      "vpmovqw": 1602,
      "##egin": 1603,
      "##otw": 1604,
      "##sspq": 1605,
      "cmpxchg16": 1606,
      "vprold": 1607,
      "##213sd": 1608,
      "##read": 1609,
      "rdsspq": 1610,
      "vfmsub213sd": 1611,
      "vpermilpd": 1612,
      "vpblendmb": 1613,
      "vcvtpd2dq": 1614,
      "vcvtuqq": 1615,
      "vpermi2w": 1616,
      "vmread": 1617,
      "vcvttps2": 1618,
      "vminss": 1619,
      "vpextrw": 1620,
      "pmovsxbd": 1621,
      "cmplepd": 1622,
      "vpermt2w": 1623,
      "vorpd": 1624,
      "xcryptofb": 1625,
      "vpermps": 1626,
      "verr": 1627,
      "verw": 1628,
      "xacq": 1629,
      "xabor": 1630,
      "cmpneqps": 1631,
      "vptestmd": 1632,
      "vptestmw": 1633,
      "xcryptcfb": 1634,
      "xcryptcbc": 1635,
      "xsha1": 1636,
      "xsha256": 1637,
      "vcvtqq2pd": 1638,
      "vcvttpd2qq": 1639,
      "fsetpm": 1640,
      "knotw": 1641,
      "lfs": 1642,
      "wrmsr": 1643,
      "xbegin": 1644,
      "##uire": 1645,
      "cmpunordps": 1646,
      "cmpxchg16b": 1647,
      "xacquire": 1648,
      "xabort": 1649,
      "ksh": 1650,
      "kadd": 1651,
      "lg": 1652,
      "lgdt": 1653,
      "sm": 1654,
      "vtest": 1655,
      "xstor": 1656,
      "##vl": 1657,
      "##em": 1658,
      "##und": 1659,
      "##ftr": 1660,
      "##pg": 1661,
      "##p1": 1662,
      "##mi": 1663,
      "##tract": 1664,
      "##tter": 1665,
      "##isi": 1666,
      "##iftr": 1667,
      "invl": 1668,
      "##ecstp": 1669,
      "vmovlps": 1670,
      "##npos": 1671,
      "round": 1672,
      "##ote": 1673,
      "lodsq": 1674,
      "##catter": 1675,
      "vpscatter": 1676,
      "##subsw": 1677,
      "cldem": 1678,
      "vpshufhw": 1679,
      "vpermw": 1680,
      "iretq": 1681,
      "fxtract": 1682,
      "##ss2usi": 1683,
      "##sd2usi": 1684,
      "##less": 1685,
      "vpermi2q": 1686,
      "vcmpless": 1687,
      "vpaddsb": 1688,
      "fyl2xp1": 1689,
      "vcvttss2usi": 1690,
      "vcvttsd2usi": 1691,
      "vsqrtpd": 1692,
      "phmi": 1693,
      "phsubsw": 1694,
      "vphaddw": 1695,
      "vpermt2q": 1696,
      "vpgatherqq": 1697,
      "vpmovsxdq": 1698,
      "cmpneqsd": 1699,
      "cmpneqss": 1700,
      "vcvtqq2ps": 1701,
      "vcvttpd2uqq": 1702,
      "fdisi": 1703,
      "fdecstp": 1704,
      "vcvtuqq2ps": 1705,
      "vcvtuqq2pd": 1706,
      "vcvttps2qq": 1707,
      "vcvttps2uqq": 1708,
      "kshiftr": 1709,
      "kaddb": 1710,
      "lgs": 1711,
      "smsw": 1712,
      "vtestpd": 1713,
      "xstore": 1714,
      "invlpg": 1715,
      "##nposuw": 1716,
      "roundsd": 1717,
      "vpscatterqq": 1718,
      "cldemote": 1719,
      "phminposuw": 1720,
      "fdisi8087_nop": 1721,
      "kshiftrw": 1722
    }
  }
}